node {
  name: "x"
  op: "Placeholder"
  attr {
    key: "dtype"
    value {
      type: DT_FLOAT
    }
  }
  attr {
    key: "shape"
    value {
      shape {
        dim {
          size: 4
        }
        dim {
          size: 2
        }
      }
    }
  }
}
node {
  name: "sequential/dense/MatMul/ReadVariableOp/resource"
  op: "Const"
  attr {
    key: "dtype"
    value {
      type: DT_FLOAT
    }
  }
  attr {
    key: "value"
    value {
      tensor {
        dtype: DT_FLOAT
        tensor_shape {
          dim {
            size: 2
          }
          dim {
            size: 64
          }
        }
        tensor_content: "L\342\014\276]?\266=\330\300\217\276\340\222\217>\342C\\>\3041\000>}\251\201\275^6R\276uL$>fI\305=\315]\253=i\376\004>\334\3553\276\225zQ>\224\226f=\230u\002>y\223F\276\242\225j\276\363\367\225>\220\251f\276\266r\220>f>A\276\267\341\232>\321@\227=>\362t\276\n\273%\276\337\374\030\276\340\356\367\274U\347z>\034\037u>>P\222>\306\306\235\276\\\005\237\276/\223\264=\345\354\301=\377\220\003>\364Z\355=\322\262^>\212\023\r\276\301\304\025>\204\363/\276\002:\n>`\262\367\274\264\261\254\275F\325\311\275\033\224z>r\370i>\370C\016<\276V\233>\325A\'\276(?\014>`\245\027>\253P\265=\373&\035\2766\214\374<\020gu\275\014aY\276\232\323G\276@\335G\276\202q8\276=dz\2761\302\227>\003\316N>\364\220\217\276Z\320\230\276\356\206O=\314P\235\275w\226\217\276\361\007m=`\'\271<[\032\204>\000k\231\274=\361\226>\245E\305\27589\361=\023\360\n>\230\3603>>\327X\276\253k\330\275\307\202\235>\342\213\217\276\000\006\315\273t/|\276~\014\334\275\036\302(<IA\222=C?\243>\364\342\234\275\'\346t>\272\006!<\334y\365=*4\220\276\230\346z\276\033!u\276o\246\272=+7\201>|\006\237>DZ\312\275|\375\327\275\'K\237=\006\334J>y/\247>$\361\003>z\007m\276[\323\354\274]\304!>r\177\200\276\220\350o\276`p\210=\377:\262>\2043\031>\211\226\224>\326\014\225\276\377\375:\276\035\360\257\275t[>\276\232\025U\276\275\013\030\276\344\350\212>#4\025\276b\372\306\275\233\322G>\206&\210\275\311V%\276:_\n>G\354\257>\037p\207\275\030md\272"
      }
    }
  }
}
node {
  name: "sequential/dense/MatMul/ReadVariableOp"
  op: "Identity"
  input: "sequential/dense/MatMul/ReadVariableOp/resource"
  attr {
    key: "T"
    value {
      type: DT_FLOAT
    }
  }
}
node {
  name: "sequential/dense/MatMul"
  op: "MatMul"
  input: "x"
  input: "sequential/dense/MatMul/ReadVariableOp"
  attr {
    key: "T"
    value {
      type: DT_FLOAT
    }
  }
  attr {
    key: "transpose_a"
    value {
      b: false
    }
  }
  attr {
    key: "transpose_b"
    value {
      b: false
    }
  }
}
node {
  name: "sequential/dense/BiasAdd/ReadVariableOp/resource"
  op: "Const"
  attr {
    key: "dtype"
    value {
      type: DT_FLOAT
    }
  }
  attr {
    key: "value"
    value {
      tensor {
        dtype: DT_FLOAT
        tensor_shape {
          dim {
            size: 64
          }
        }
        tensor_content: "\000\000\000\000+\260\305=\000\000\000\000\376\002\007\266a\"~<\2335\271\274\272w\342\267\000\000\000\000|\376\036<B\210\023\267\241\016\010\274]\013\216=\007\300\0146P\351\353;j\340V=\236\364\343<\000\000\000\000\000\000\000\000@\202`4\000\000\000\000K\225\260\273\'\346\23597\034o=\033\0105;\266\302\0148O\332\303\274!\204\2749\000\000\000\000(\tE\266\032\271\2665\014$\234\274\321\303l=\200\357\233\265\037b\301=\235I\014\266V-\351\273\0053\263=\254;\2337)\250\032:3\t\014=\343\346\242=\342i\212=\000\000\000\000\000\000\000\000\025\221\016=\251\267o7\020\315d=D\210\206\273{\036\021=\000\000\000\000L\n\374\273\336\231\235\266\222G\2554\000\000\000\000\220\307\277=\000\000\000\000\000\000\000\000\207\'+7\000\000\000\000\000\000\000\000Y\327\3149o\227J7\263;\257=2R\r\274"
      }
    }
  }
}
node {
  name: "sequential/dense/BiasAdd/ReadVariableOp"
  op: "Identity"
  input: "sequential/dense/BiasAdd/ReadVariableOp/resource"
  attr {
    key: "T"
    value {
      type: DT_FLOAT
    }
  }
}
node {
  name: "sequential/dense/BiasAdd"
  op: "BiasAdd"
  input: "sequential/dense/MatMul"
  input: "sequential/dense/BiasAdd/ReadVariableOp"
  attr {
    key: "T"
    value {
      type: DT_FLOAT
    }
  }
  attr {
    key: "data_format"
    value {
      s: "NHWC"
    }
  }
}
node {
  name: "sequential/dense/Relu"
  op: "Relu"
  input: "sequential/dense/BiasAdd"
  attr {
    key: "T"
    value {
      type: DT_FLOAT
    }
  }
}
node {
  name: "sequential/dense_1/MatMul/ReadVariableOp/resource"
  op: "Const"
  attr {
    key: "dtype"
    value {
      type: DT_FLOAT
    }
  }
  attr {
    key: "value"
    value {
      tensor {
        dtype: DT_FLOAT
        tensor_shape {
          dim {
            size: 64
          }
          dim {
            size: 64
          }
        }
        tensor_content: "\216\250\344=\360\003E\276\017\220\031>\336a\032\276\260\235v\274\027S\000\276l)==\320R\002=\356\027\271\275l~ =\340G,\274 \256\343\273\260S9\274\300\347\206\273\2677H>\304B.=F\033\035\276\202\277\222=\353BE>\240\320\247\275\354xD=\022\370\020\276\260\377\262\2747\230R>,\335d=\210O\027\275 \325\036\276\005\372\035>H\212\007\276\330\322\361<\207\277+><j}=\306]\240=\373~J\276\362\221\270=\321\302\007\276`\0145\274\261j\030>\262\244\302=Y\375\001>i)R>\244b]=\003.\n\276\224vn=\004\276!=5q8\276\312\305\212=\362$\222\275\327\024\024>\254\"\t\275/\344!>X\204\263\275\350\017[\276\025x\000>fF\262=\'\313H>F\032\203\275\306\207\264=\2501\232<\362\352\315=y\r\006>\226\026\337\2752j\306=\200(Q;\371\321u=\375H=>\364P\306\275\031x\275=8\203\207\275\373\365\325<\036*h>\337\243U\276\030\336\231<l\221\027>\024g\235\273j\231.=e-\271\273\326Y\210=\217\267\246:2\373\027\276\035\357;>0\343_>\213\210-\275\323\261\'>\177\245%>\267\335\313=/WN\275\002\345,=\210K\272\275\000\261c>\005\303\312\275#\232\300<\306r/\275\376#\031\276\010\327f\275\311\r7\276\251^\236=\230\037\n\276\317\025e=o\021\005>\235\274\336:9\303a\276\266\004\t>_e\032\276\312\237\230=\262#\336\2754\354?>\3778\353=\335P\212>\035\370|>,\332)\276\310\314->4\364D=a\300 >\026\205\003\276[}e\276e\247\013\275*7\337\273\264\222\376\275\210@\227=\263\305@\276>\321\236=\373G\225<\004\020w>\327\364#\276 \342\346<M\221E>\002\244o>\320\3771\275\270\232\003\275K\240G>\013\034.>4>\005=g\210\010>\000\254\033\271\342\252>\276-F\315\275<\353m=\353\307\312\275*@\235\275\022\005<\276\237\331>\276Y\220X\276@\364\001=\026 \346=Q\205\'>\020D7\274-P\036\276e\'\022>\3625\320=\345m\022>L\315\023\276\027\312\375\275\t\277[>d\035\037=\256\326\221\275\025&!>79\315\275\254.;\276@\363\320\275x\202G\276T\316?\276\222%\263=O\254\370\275\344\0021=\036\262\326=8\3123\275\256\364\303=\214\355\270\275\306&\325=\322N#\276\200p\245;\334!M\276:(\253\275\364\225\003=\021\232\026>*\340\373\275@\223B\276\326\262W\276s\327 >\036\203\025\276\272!\251\275=\353\022\276\217\304\356\275\223e!><\215C\276\252\023\310\275\200YH<H\n-\275\210\255\010\275\023\220P\276\003\272\034>P\373|<\352\364 >\203\340\255;\302\r\374=\346l\267\275\003\220\026\276o\344%=d%\002\276\010\021\242\275\337\205:>\034\tv>\037\237\302\275#2\352\275\264z\016\276)\001K\276Q\267\n>\344%\017>$\002<\275\370\211\024\276\372A\375=\271 Q>Je\244<i\260\236=\020Z\016\275\341E\177>\324>\344=-)\334\275W\363\333=\236,\3438f\311\207>\370\233\251\275\366\331\350=[\214\237=\367n\345\275\324\334\302\275\001\317\035>N\327\270=P\211\374\275\255S\007>\250 s>-\\G=b\335\221\275cCj\276r\200\345\275\233Hd\276\276\352\310\275\375mU\276\350\026g>\005\253\222>B4\220\274\366\361\211=#Q\032>\376F:\276\221\266\213=\353GP>\354\262\\\275Y?\037>\036\306\355=<\364\331=A\214\022\276\367s\361\275[E\t\276\236\315\242=\332\367=\276\250\362\334=\345\274\333\273\007\233C>\025f\030\276>\354\266=Vp \275\354\270Q\275\277]7>\304\r\007\276cp5=\320\030_>#\2571=z\223\257\275\352\216\344=\030\306\202=X\204A>\"\374E=lx\366\275\237*\014\276!\320\027>7\315\026\276\210\027\265=u\2410\274\313\377\243=\250F\204={\363\271=u\3667>.\231A\276D\350!\276\262!\321=\306\312\313=\225\255 >\250\013\253\273\343nQ\275\022\177\017\276g\020\r>\375\372\034\276\'\200\014>%~\251=\326\371\271=\203\353o\275\256`Q=\233\350/=\034\305Z>\020X(>0\225\016\276\306\213C\276\252-d>k\210\021\276\262\003V>\241t\347\272!\007N<\305\334\200<?\334G>M\212\336=\323\2204=CI\014>@D\236\2743\326\277\275m\340\205\275\000\374\354\275\324\200\020=\241M(\276\2340\273\275U=\001>J\277S;\357\3760\276\010C\320\274\367jB\276\331\'\037\276UV%\276\311\2406\276\3742\005=\324\235\033\276\205g\346\275\241U\016\276\030\366\236=\216n\364=LR\314\2757\013\352\273K\306\224\273H\305\004>\204mS>\030\253\"\276\317y@\276\221\207p>\211se\276:\274E<\022\305\270=\007\305\325\275\264\305;=\377P7=\206\250i\274\370>\311\275\317!,\276\026\203\342=\177\002`\275\243\002\005>\201\"\005<R\3169\276\231kN\276Ft1>\307\302)>\361\035A<\002\035\031>\224\017/>gF\r>*\344\013\276CY\350\274\304\376\305=\220\251\272\274\2232;>>d^\275\204\324g>u6/<\215Y\237\274\337=F\276\265\311\200=\010\211\017>~\255\031\276$\202\035\275>\202\215=\"[\256\275\204@\363= #O\276\025\216W>\340\034\222=\320\332\006>a\356#=\266\235\371\275Q.\034\276\227bN>@\273,; V=\276\324\310V=&\231\200=\300)\211<v\004d\275l)1\276\235\257H\276\261Y\233=<\236N=\344\277-\276\231(\037>\306\021`=\037\343d\276\356R\354=\211NJ>e\212j>aw\017\276?J\014\276\346|%\276V\007\300\274L\270\211<\025\032\025>U\346D>e\020\236=X\034\037\275\206G\370\275\250\005\377<\322+\375=dO\023>\327\370\001\276\001\217W>\0320\013\276\021\331\022>`\'\314\273[1\364\275;\225(>\327\000L=|VG\276\270\257\365=$&\330=\236C\n\276\300EV\276\325+\262=\214\370\250=\220\252\360\274Q\\^\274\312\246[\276(\263\333\274h\231\350\274 \317\245=N\246\261<\240\273]<\364\336\355\275H3P=\tH6=Z\306\263\275\207]\r\276\t\347U\276\006\237c\274\226\341\216=~\356\367=\352\352\327=j\337\323\275\373_\031\276@\023J;y\016\365\275j\302\224=\2006\314;\314^\223\275:\017\313\275\000\016\003\272x\343\371<?\221N>\320\204C\274\026\313\263\275V\211\374=\352\177\363=5@8\276\036\3475\276\024\0132=\306\301\275=\nq:\2763\243%>0\177b<ndT\276P\364\370<\026\240\n\276\341\270\r>\323\241=>\003R\013>j\243\245\275\375(E>\200\263\230;P\315j\275e\336.>6\245\272=<\tR=y]\010>\354\026\036=[\340+>p%\367\274\235\025\357\275b\244\255\275\3434\035>\326c\367=/4<>z\330\267\275\210\346\002\275\255\375B>p\000?\275$D\'\275f)\200=k\3559\276z\212\312=h\342\215\274\341\027V>\177\330,>\324\017+=\220x\361<\014\366\030=m\017#>sz\027>\3517D>\351`\247\275\323\224\027>\203\001s>\316\007\367\275(\356O\276\326>\373=\276\244v\276\216<\334\275\346\003\243=y\320A>5~\337=\030\2300>\247q\316\275p)H<\340\0006>\256\303\373\273\001v\022>\344\306}\275\003h\315\274\267X{=\1774\277=7mp>\364F\001=\353\333\302<\270o7>2\3319\276\360n\017\276d\255\235\275\214\2045=k\343/\275 \005\001\275\311\325\351\275\320\260E>\200\002\323=\234\200\237<|\006I=\330\327\'>7\241\271\275S\300T>*\210F>\002\251\302\275\035.\376\275\004\252\006\276=\305-\276\3151\316<\255\240\350=\224\220,\276\313>(\2766\3712>\037-\262<\001\2051\274u\254+>\376\351\007\276\355(K\276pI\000>\013\376\010\276c\302\377\275\006\372\007\276\353\021P=i\2704\276\354G\007==\023\371\275\035%\251=\367\315}\274l\230\r=\247\246\257\273\027\306\233\275\324\"w=\213X\037>\002\311\t>\253\210G\276\000\0164\274\312\311S\276\342\213\266\275=\355\220\273Y\317J\275 `\216=\220\350\006\276\021\375\035=Lo\010=\\\205*>\303nz\276K\237\007>\377|\216=\267\216\037\276\255\2374\276\364o$<h\3172=BF\331=\330Ob\276aa3>\260\025Q>\247\3371\274~\005U>\002b\230\275nn0\276F\305\360\275\021<\345\275\261\321\344=\024\034\253\2755\366 >f\3317>*Z\n\276\230\364\205=\342\217/\276:\235U\275\252\347\274\275\200\266M\276\255[R=FQR\276\021{T>\260\377\032\275\311\022W:7\301j\276\272{\034\2769T\245=\244\"J\276I\035&>\325\331\357=\373\326\'>\032\375\323\275 r:\274H\252\221\275O28>\225\3473>~\273\022\276\332\004\302=\346\013\353=\3704\">\237ym=\242\034\241=\036\324\004>\235k\021>\220j\377\275\333\300b\276\244v\033=\016E\027\276\353\256J\2765%\356=\332n\376=\325\005L>h\007\365\274pyi\274\270\030\363\275\267\360\361=\245\271\334\275\321l\014\276:|}\275c4[\275\324\216\252=L2\276\275j\205\310\272\246\360E\276D\\\222\275\222\271\212=\350:->e\364\271\275Hd%>B\023\371=\215H\377\275zV\207=`\360\023=3\266\320=\254\276Y\276|\302y=\311\357%\276\020\361\311\274\274O\016\275\376\325\207\275\305\037\005\275\036\000O\276y\"\304\275\006\3027>J\025P>JK\235=\210\273\240\275G\'M\274\306s\020>W\243m\276\216yN\276\354 .\275\357\004S\276\024\004\215=\361\023\261=h\377\007=`\216\321\273\212\355\256=\213S\303<R\026\000\276\360\275\240\274[X\343\275:;\223<\376\003j\276e\351\361<\301\005\210=\2217\002\276\363J2\276\017\327&>\306\201\210>\220\312\214<\304n%\276\313\010\t=p\251#\275\263\034\207\275\016\"\231=\205\036\032\276\312\262/:\032\370\224\274\n2\210\273\217p\352=\3759\030\276X\217\243\275s&\376=\350\013v>+\214\035>\253\001\320\275\241\2427>-\2574\275\234\331?=\360\370\312=\253\350\355=@!/=:\371\312=\377\260B>\034\254\231=M\340\341=\2164\334=\324s:\276u\217\307\275\246\035)\276D\034\230\275\2225@\276\202\204\t>\177e\321<\211Q\014\275\371b^>\264^\237\275m\221\325=\024\342\022\276\362j+\2767\245\264\275\337?\006>\036\'[\276\267\2144>\344\365\'>\376a/>\376y\262=\251\2333\276\006\177\256\275\254\255$=|\224\027>m\336j>\022\320\351=\267\200\331=q\337\000>\353\021O>\323(\361\275\237\226\320\274u-\034\276\266\232\327<\004Z\031\276DZE\276\366%\356\275p+\300<!\035S>n\006\206\275\214s\206>\350\3678\2748h9>\272\036\375\275*\247\006>\304\320\035\276\305\301\216>\244\273V>\334\3757>\237q\372\275\303\242\217\274\330\007+\276\316\375\022\275\323\202\256\2742\021\000\276\330\255\023\276\264\223$\275z`\202=\007\232^>g|\212\276\262\247=\276\035\230\037>0\266R=q\311\016=.IV>AJ\032\276\270@\354\274P\017*\274}\256%>\230\004\177>\201\256l\276fsY>\323\330\247=\311.\321\275\332Ew=\3671\032\276p\367\024\274\035\002\216=k\236(\275\265\254!\276\273\321\036=o\234\326\275\036:\213\275W8\030\276\263D\004>\202\370^>\342Z\201=AY\327\275\231l\206>\275\223\027\274we\340\275Ow\223\275\2205\277\275l\275\225\275\207\253\031\276\317\363\324=\367\200\022;\271%~\276(R\003\276\022>\314\275X\2719>^\364\212=(e\020\275\331\305\215=\"\305R>\000\265\211\275\264\312o>\330\307\\\275\340\007\224\276/\227\277\275\215S\005>\016\304\237\275\324qJ\275\007\335\206=\241\221\214>\0359\357<\217\225\025>\301\276\006>$\242b\275\016l7\276\266@\373=s\3763\275\326\324[\276\206n\321=l\316\023\276\276<\270\275E\255%=%\0006\276\213My>\313@\025>\366\277\035>\241\267S>\267\343\277= QL\274\030\2037=\017\323$\275\354\366\006>\004L\335=\263z\232\275\241o\265\275\337\356\343\275\202\371\030\275\260,\270\275d\003\300=Pj\333\275Y\034(\2757?\277=\257\005\313;\366\206f>\024\220*\2765\217+>\200s\245\272\026!\223\276\334G;>P\345\200\274\251*|<\210~\005>\345P-<\334\3208\276:\325\027\276\311\025%\276\335\250\301=\n\354X\276\346C\347=\374b\216>0\217\006\2750*\003\276u\'\034\2764K\252>\272\321z>ii\032\275D\"p\275\301\215T\276\323\221C>\312\306\021\275R\371\177>\350\256\225<35\333<N\"\021=\272\274\024>\204\316\314<_7\037\275\025\303\330\273\275\336\272\274\256b\266\275\t\224[\276\237\0061\275\213<\303=\266\200\234=x4\303\274\250\377\207>\203\025_\276K\320\240\275\311+\030>\t\365m=\254Z9>\'\033\001>6\307\210=\tk_\276\275\3143\275\353\355$\276\200\214O\276y\314\000\276\222)?>\314Vw\275z\334\277=V\261\374\275I\365\323\275\020_\230=7\224\031\275QI\326\273E\310\221>?\356L>\333\245\t>#\314#\276P\246\301\274\003\303\355=\271\256(>\036\354\247\275W\\X>\265\031\217=F\237\353<.4Z=\366sl=\247k\347=<\000:>\2605\377\275\232\033\n>\365;\323\275\206+<\276\200=\000\274\313M\234=\233dY\276\002\365\2558\035\235P\275bS\376\275\'\227\004\276\31779\276\347v\014>\352\0057\274 \275\332\274%4O\275\000\275M>\2709F=%\0065>\360ZR>\\\034\263=\263\261\225=H\344\022\276\346X)>f\033\030>\231\230\340\274-\225\002\276\360!\275\275\252R\377<Xp=<\345\226\370=`\034\371<v\362\013\276\206^:\2764-\020>\214+\316<\244\nI>~>Z>\245\245Q\275\244\237\004\276\302\026\021\276\347m5>\314\201g=\316\302=\276\373\276i\275\276\344\254\275G+\246=\246\246\345\275 x\r>^c\031\274]\364\244;WR\310=d\340\r=\204dp\275u\315\243\275\310\r\325=Ht_\275\270\3708>\217\306c\276\210e\221\275\024\212\026\275?\3275>GX\373\275\013\336M\276\357\'3>\320\2369\276\360\342#\276/#P>\234\033\022\276\235\036\024>w3/>\262\321L\276\240\342\322<>]\210\275\340)\276\273\244\372\r\276\264\nT\276\214\277\200\275\325@&>i#Y\276\336\201\345=\337\276\016>\377\267\037>\244\027H\276d\n9=\003\273U>zA\201=\304\274N\275 M\336;\224\177v=8\230#\276EBA>7\0037\2760\341r<x\014\206<(\247\242<TpK\275\036E\255\275\355\033<>\203\3536>\247\3609>\310R\310<\230:\343<P\264\000\275,\020\241\275\372\245L\276\0176+>\244\0148=\242\254\251=\307P4>U\374\020\276x\214\331\274\257s#>,\300D\276M\347\313\275@G\r\276\\\247?=\214\2625\275\370\344@\276\270\274\230\274`%\236<\277\244R>Lr\022\275>\016\360=x\004\005\276\354\"\270\275\n(\004\276o8<\276@\276\002;\305\003[>\310\321c\275\350w\261\274\020\322v\274 \351\330\2742\001\263\275LAe=\2716\036>\000L\256<\216\322\017\276\320>\035<\370Pu\275\n|\367=\007\226\026>\033r<>elN\276N\234\212=[\305L\276Z\371X\276\210~\324<\000\027\251\273a\234[\276j\024\332=\2513=>\200\017\222:\340C\276\274\250\364\334<\251D0>\356\257\362\275\302v\246\275\\\331R\275^\243\326=\201\276I>,7:\275\323\334J\276\341#\020>\374\316Y\275\000\372u\275,9\017\276[^\030>\355E\032>\317d\030>\346`L\276\nA9\2768\205\024\276\201\375E>\220\324\010\274\027\324\033>\207\217\314\275\247\272D\276\333\\\014\276#\226)>\327aD>\311#\"\276|\334W\276j\007\376=b\026\211\275\234\332\333\275a\370\'\276N@\210=\247yf\274\353\031\250\275\266\260\252<\200\t\025\275I3\236\275\231\005m\276\323\2013>~U\263\275mo%>\266\344\201>\311\326f\275\374\031e>\220\rZ\276m\236\021>jDO\276\353/t>\225.\220\275\316(\350\275\331T6:\354\277\t\275\370K\022\275\032Y@\276\340\025\004\275\264k:>.\341\020>\';!>\237_\024\275@\353\023\276\177b\031\276\010\307\230\275\260\326\227<\225~,>\3611\035=\014[\270\275^\204@\276 \211\316=\2651\030>O\374\321\275\355\017f>\233@\020\276\326\001A\276\263\372\322\275]\237W\276x\216B>\371\225\242\274\221F\014>\034\276\201>\364T\332=\347\370:\276\270\026y>\246}\323=\350\324 \275\271\255F\275\213\370\031=\037\021\202\276\370#.\276\\.\\\276\251bI\276@\212\026>\254/\n\275\321\277[>$\351n\276\276WK=\301\022\324\275\250i\010\275\244K\027=}PE>=\0166>|TR\275\3113\026>Li\022\276\202\200\343=^R\354=\366.\355=\300=\365\274\027]A\276ab\335\275 \255`\275=\003$>\273\333\r>\233\301\016>\270\005\324\274\230\034?\275\374\236\032\275 @0\276\226\031\204\275\247vF\276\260o\232\274\330\276\271\274\354\027<=U\202(>\224?\036\275@Z\"\273\206\266\"\276\217\206=\276\305\020\330\275\252\020\"\276\2355\\>\0209\234\274h\r\375<\036\351\304\2758S\275\275>\006\253=\224\361E\275\305\2663>\262\310\243=H\347\331<\344\322\037=r:\273\275B\216\330=Z\206:\276\240\241\r\276\177\326\022>\214\322\220\275\230\260\377<\313\370#>\2253\017>kL.>\036q\264\275\241\310\326\275\262\363\305=\274\347)=f+\232=2d\361=\023N8>\270\307\362\274\274\242,\275:.\322\275}\003\220<\232\273\017>\323U\345=_\213*\276m\235w\276\266p;=\030n\033\276\2504C\276\3757$=HM\n\275a\233e=\034%\360=8P\326\274\233#e>\032\257\376\272\227_\270\2758\345\206\275\"\315\267<$\366~>h\225\314=\231\217b>;\260\206\276\311\235\252\275\014\211_>\364\304x\275\323\261X\276\233\362\032\276\323\2365\275\312K\265=?\026R>P\236F\276\205\316R=\310(\353\275\352R\264\275\263j]>\205\307\322\275\037\225\201<Z\3559=\264^\010>\325$T=&\356\263\275|\020O\276F\312\344=\354\267\261\275Oj\032\276\250\221\330\274R\232&>\367\201\016=\346\n\000>\365C\024>\301\314\242\275\355T\t>\300\2458\276\207J\343\275\000\360\270;\252\210\223\275\364\361p\275o\352\n\276_\030q;\207a\031>\304\336\016>\305B\">P`>\274&\2456>P\367\013\276\365\343&\275cxk\276\035\326\002>\355\017\031>\256V@\274\376GP\276\270Wq\275\030\001|>K\272\345\275y\n\003\276#iz<0e\002<K\030Y=\266r\340\2758S\357<\227\032\007\275s\221\260\275\267\353,\276\360\333\345=\335Y#\276\357oC>2|\r=\363|\005\276\032G\220\276L\021\006\275\224\206n=\007`\345\275\177\376C\276\27620\276\000vr<\361<\227\275x\035D>\333\220\226=\337GC>\220\223\277<!(\020>\240\335\371\274\035N\020>u<7\275H\236\377;\353\200\"\275\337\233\243=\'\347\221\274\212\346\312\275\006\313\337=\006\345\275<D\327\230=i\303\021>LI%\276\'\273\233=T\315n=\325X\215=[\342?\275$\374\001\276cUR><\3347\276\227\2316\276E\217\217>O\316P\276\325\245R<\350\334\177=\223/D\276\376\356N\275j\356\302=q\317\r>\360U(\276\226\244\374=\3571\225=\246\255~=\000\203\201\272X\002\244\275\247\357/>*T\370\275\353\327\242\275\307\003;>\350\306\000\276[\270\204\275U\204@\276\202\010c\275|G\022=\3337\023>\226\033\022>\370\034\334=wC\337\275\250\272P\272E\026\215\275q\245\330\275T7\315\275q@3>i\362+>e\3162>\334\217p\275\006U\330=*z\361\275?\342\203<\232J\222=\351Y\203=\016|\206\275\267&U\276\266\001\"<`\304\217\275\325\333-=U\213>=\303`o>\312\336/=\003\370\343\2756\014\020>\265\301\000\275W\314=>y\365N>\003\323\243=e\tJ>}\000\313\272t\256\033\276\234N\374\275\345hD\276[jd\275K\024\361\274\016\260\331=\244Cf\275A\257\254\275{\212.<H\215O\276;\256\317\274\r\203#>{M\201\275\242\370\311=\203C\007>i\245\270=W0!\276\rTK\276\022\252\236\275Yd^=\242\317\336=.G\312=;\002P>)\334\206>]?F\276\264J>>\316lO\276\237)\031\276\317\223P>ggV>\014t#\274\227\361?\276D\375\250\275\234F\261<\355>r\275x\016\024\276~\324\342\274t\202\020=\213\030\340\274\030\035h\275R\377\232\275^t\253=\217-p>\210\t>\276\250N\257\275\200EX\275a\241\257<\363\343^>T+\026\276\227\215\030>\232\253)>\014TI\275\203\304n>\351\303b\274\350\350\t\275\255rB>\2673\364=\364\374<>rL\306\275\246d.\276\244\266\254\275\307\032\213=^\2306\276\334\212\022>w\366\320=\251)V>\353\206\013\275\330\374\313=jq8\275\353\373\001>\3150\367\275\215\317+\276\004\223)>h -\276\014\302O<:\244\232<\301\320\030\275\353)\330=\004\316\367=\364\261O\276J\305g=y\240@>.\023\022>\362\343\344\275\240\2031\276\030\316\262<\030M;>\020\335n\275\303[3>i5}\275\300\206\364\275\251\340\206\275\003\246\377;Ac\252=\321A3\275\246\0314\2762\275\265\271\240\324\267=L\261\202\276b\304\211>\310\214X<Y`\340\275a\2030\276\355\3519\276PS\323<\3403\032<\026\305\331=hMj\275\034H =\203UO>\210\217*>\347=Q>(T\004\275\337\277\010>:s\'\276I\373P\276\332\223\220>\370\245\036\275\004\236\213\274\264\377\006\275\036\nK\276^s:\276r\210\325\275\322\213\360=\242\224L\276\023\2239>V\247\350\275E\355\331\275\224\325F=<\252\311\275\215\210\212;`\372?\275g\343\255=\006o\213\275\244\001B=\261rF>1\212\216=\250\001\251\275z\032\'>\200\344_\275\374S\212\275]\037\346\275\365\316\321\275\271?\314\275\314\215\027\2768@\017\275\203\362\031\276\017\352\374=,|\r\276\t\256\032>W\'\233=\017\336\372=J4\026\275\303u\371\274j\352N\276C\005?\275z$\246<c\230\311\2748 $\276\363/\241<\240Q\375=a\243c=; F\276\247/,\276$G\272\275\010%6\275\300?\014>\224=r=\200\227\244\274\260y\027\276\005\025\007>N|\234=\210!\375<?\231|<\3102j\276D\227\301\275/H\">\020;\310<\264\200C=\223!\241\275\'e\021\275\227\025\304=\236\212\222\275\2162\007\276\007\247\002\275\314d9>\006\250B>\242\346B\276y$\373=\035\315\212\274v&0>K\241V>\035A\233\275\271\035\025\276\215\243\367=\210\202$>y\343&\276\357\241J\276wm/\276FU\177=\251\366\227=D\351I=J\240S\276\240\333\324=\240r_\275f\264\244=\027\234\263=\032$\307\274p\311e\275\200\252\241\273\303\237\027\276W\214\210\274(\247\243\274\0141\010\275\225 \004\276\336\275\303=O\372\007\276\232$A=\360I>\274\234\376m\276 \247\010\274\217 \036>\000\250\233\275\320#\261<\\A\317<\252\274\335\275\337%\314=\250;\376=\271\'\n>\n\305\223<\003\226m\276P\254\203<\203\354\355\275\"Fe>\210\270\211<\227KJ>\341\357X\276q\"\200>\335\t:\276V`k<b[M\276t@q=\224\355+=\341\205\016>\226`\\=\352j\001\275\300\223\215<\004\224\331\275\232id=\320\265\305=\024\244;\276\035\223O\276Q\222\256\275M\241/>\211Rr\275\037\264\201=\021\342;\275\365\361\010\275\310q\270=\246Dm>3\267\032=\262:\200=l\233\006\276wZ\200>\177\320\010>q\313\326\275\333\2663>Ho@>\226\353\210\275\372U\356\275pv\216\275\355\254\037>\2247/=L\006,\276Y\2707>\223\333\001>\002\033\271=\322p\203\275\002,\024\276\327U\013>\2546\320\275J-\346\275\255\350J\276\216l\005\276q\032\300\275p\263\345\274r^\361=X\253\203< 2\345;\311hS>\205\351<>\332\306\256\275\210\231)\275\014D\010=aq\026>\002\347\263=\010\000c\275\340\222\255;\205\212V\276{ZN\276\303\207\036>\340\273U\276\272\261\267=\335\317\022>\004N\005\276\200\317\233:\351f\007\276#O[>\303\225\001>@\362g\273\214\203m= ;\334<\203\313Y\276\237m0>^P\213=:\253\020\276Y\365\010>\260\212&\276\330\177\220<\026\370\212=Z\320\316=\244\361W\275\016nM\276\375\001\031>$\252\035\276\nN\204=\373e\352\2751\274/> x\210\274\0008l;\301 6>h\303\033\276\267\356\310\275Z\007\252=\276\364S>\203,\225=+\275\253=\267\200\024\2769\272\n>\032\307\236\275\310\216^\275e\032Q>%\225,>\357\361\201\275\345\354P\276P\355]>\254\353\013\275\323\n\004\276&\003\277\275\004gM>\266\360.\275\340h\025\276^\224\267\275f\006I<|\303l\275\274o$\276\215\216j\276$@x>8\'N\276\224\375u\275\206\0312\275DE)\276\346\257W>\212\334\017\276a<3>*\304\377=\340\206\277\275\313\232\211=\300L\025\274\022\347\323=*\255:\276N\310\016\276W\345\201>\340L-\276\237\360\274\275\333\242(\274\205\314\177\276k\0349>R\007\\\276\332\225&\276\323+\273\274\333\370&\275\362_i\276\327{\203=~\215\230\274\010l*\275l\275&\276O\273\201=\324F\315=\024#,\276\026%\254=A\230\320<\'\315\254=\327y\014\276Q\274\010>?\364P\276\201K\346\275\013;\027\276\\/S>\023\315\211\276\\\\U\276\021\212\273\275\321\271D>+\006\002\274D\233Z=\030\362\201\275\315\304\244<\233\031\353\275-\350\375\274,>\316=\004\341B\275\335\231\273=\370\370\217<\320\224\213>\300\326d\276\257\037K>\t\236=>\350\257T>\024/\361<\344{\005>x\255\032=\001\355\201>\306S\376\274\023\003\354\275npG=\270K\234\275\025Iy>\372|\030\276\224\300-=\363\341\270={U><\207\360{>\243\3111>\227,\323<n6\">\220+\010\276L\t4>\316\221\200\276\023\253\352\275\346Y\256=r\261o\275\232l\025>z=\333\275|[\030\276\t\201\246\275v\227V>O\014v<(\"\\\275\007\324~<JE\310=?\326(\276\356\230\033\276\331?\322\275@4\261\274V\215\256={\355\271<\360\347\033\276\352\0161\276d\030#=X\214a\276\r\357\004>:\024\231=6[\203\275\213K\275\274a{)>\200\003\372<\007\224\213=\260e\331\275\0315\307\275\030\307\006=\227n\224\275dr\030=\243\0326=\336\377J\276\t\264\360\275\336\207R\274Z\221\317\274\320\311=\272P\2022\276Y\n\036\276V\350\243\275\026\233\014\275\204\246\230<\253G\221\275\326^$\274Ms\315\275-I<=T\336b=\333\272\331=\"\007\223\273|\207!=\000o\023;Jd\307=\250\222\023>\302R\r>\032\331\226=\267v8\276\277\371\365=~\210\320\275\323+F>\007l$>X\006/>\021\254\265= \345z\275\202g]>3+\272=\205\2013>V\231\215\275\272\356\227\275\373#H>\025\311\034\276\3440\270=\333y\274<\251\343\007>z\224d\275\255\306\251\275\267\376;>\2328\236=(\"E\276\216L\211\275~\240\003\275\327r?\276\203&q>\247\206\372\275P\244\357\275$\261\024>\344\214&>eY\246=\344y\217\276 \0305\275\006Se>5\023\215>\014\306\'\275\200)X\274\306h\217>xJ\267\275\314_1>\'I2>\356H\264=\200+3\276\341\336^=x_Z>J\350\033>c\277/\276\221\206\207=qx\211=\000\340\\\276\n\\y=\361\0222>\306\2252<\007~\232\275\324V\010\275\313\3521\276\361Z\357<\246\375\002\276\232|8\276\245\201\033\276\346\375X<\334bC;\375d\270;\202\024\025\276R\272\261\275\321M?>F\265\370=\366\274T>\357\035\356\274liR>\0027\320\275x\267\244\274L*Z\276\351c\007>\270\"\316<\205\005\306=\272\302\017\274\201,R\276\267x*\276o\3111>\245p.>d\340H>\376e\210>5x\034>\331\020]>\360E\377\274\217\210\026>\253\035\205>*r\265\275Z\030\344\275(\277/>\241ca>\013c\356\274K\022\001\276m\036Y\276\300%\n>\316\363\325=\230)!=\230]\033>\202\263\215=0\2049\275\253\322?>\326\n\362\275O\214\030\276\225D\357\274|36=\225\261E\276\230\0177>>\r\003>~\250\000\276MR:>y\'<\276\031\236U>\372u\312\275\232\377.>\274\222\214\274\324\312\246\275:\342\205\275\264hE=2\360/\276Hj\373\275S;\367\274\344\r\033\275R\370\365=\277\352\317\275m\226\016>\334\304B>\342\356\025\276|\300n=3e\363\275\2572\037>\005\210}=\330\000\272\275\243\236\031\276\272\351\000>j\301\027\276s\027+\276\204Yl\276\350f\323\274\032\220\204\274\326\007\243=\2674\'\276\243+K\276\340\300\235\273<\000p=\277\372w>\026\240\017\276\244i\221>\024\230\245\275\000\022\231\272\006\0312\275\336N!>\324\361\253\275\026Z\322\275\201\306\316\274\244d\304\273\023l\001\276\244Ss>J\202(=P\025\231<\235\017R>\2753I=\236\031\242=\206\205\005\276\025\317\027>\207\311a>\205\344k>h\303\200>\026k\016\276B1\347\275\005\246\260<T8<\276Mc\326=\360c\201>\242\234\'\276\277\251W>RGw>\230\014\271\274ej\346\275\360\376\317=\006f.>\263\226\000>\344\360Z\275(<6>vn\"\276x,p>[\335\022\276\224\202\033\2764Fp>3.j\276\316\177d>\231g%>\227\023T>mB3>%\035\036>k.\204\275\375>\024\276\244W\001\276\0203S>\260V8>:\243\036>W\007z>\370\031\370\274u\237\322\274+\332\031>\031L1>\362\367\371=\207\265!>\216<\037>\3316\270=\024\276M\275/\210J\275b|\223=\000\021\013<\242/\222\276k\017\272=\355o\032\276T\205\303=\233\370C>\333\213:>\262\341\262=\317\014?\276$\021_\276\036b\037<\301FO>\253GB>\224Ur\276\312 +\276\206Y\272=D\333\216>[-\007\276[\n\225=Q\302\222>\000\317\"\274+q\004\275iTO>TTP>Q\376\336<\000\247e\275\002\246.>;\301E\275\317\257X=\207\022g>e\237g<R^i>1m\241\275O\0047>.S\001\276[CK\276\2560W>\254*>\276\241iO>b\222\204=\036\372 >O\225B=\022-\035\276\342\352\020\276\224\232\321=\260\377\205\274\032\025{=pi\037\276H\260\005\276\005\2654<\262\337\330\275\212\346!>u\234v\276\006\210\364=\243\210\227\275\017\304\253\275=\251Y\276\020\357<>f\232\250=\246\304\245=/\363\311<\0258w>\rJ-\276+XL\276\022=\034\276x\320c\276\270\327\251\275\251\246>>\257\215\233\275G\n\240\274\224\"\377\275\300\303\030>\303\021D=/1\363=yF\216=U\204\"\2760\324%\276\237\245C\274\332\372\344=\2106\214\275\336\032\242\275\306\204r\275\311QL\276\260x$\276\010M\277\2752\323\362<#\221t\275k#\035>\352\305z\276}4\302\275Z\216\356\275\275\003\2119\247\377\">\345*;\276\242\336\007>\037Xk>\264\235\366\274q\204\362\275\375\254\021>\003x\032\276\2451\225=GkO>\272/O\276c\317,\276\333\035X=y\233\373\274o\311Z>sdG>s\"\245=\207\031\007>\240\023r\275\0059E>RV;>\033\302>\276P\217\210\275\342&\273\275C9\302\275N\212\033\276\037\321\353=\243\370]>\341\316;>\320\243\234=\240\336g\275\000\010\254<\333\255\225\275\315N\274<#ja<\003]Y\276\335CX>\356\267\345\273I\350\036\276\264qW=\\\304\312\273\313\312\366\275K?\230\275-H\260\2751\301h\275\".\030\276\327\216\320\275=\003\037>\343\350x>\224u8=H)7\276a\236\340\275\2274\215<\021\270\216\273yn\245\275%\224I\275a\177\301\275d\251f>\373\322\006\276\267x\243=\025>>>\333\224\231\273\204\354,>\263\345\225<\377\324\246\275\223\314\246=h\255\005>\302\371\310\275\035;]>\030\262,\276\30277\2767\234\363\275\034\260I;\340eQ<>\202\256\275\313\030\220\274\213f\224\275J$\035>\342\303\275\275\346\2511>\341I&\275R\234\243\275\212\r\317\275\237\247\002>\017\2602>]8\000>\370{<>K,\n>AX\374=\340\\4\276\263\013\342=\303o\331=\377\301=<WJ\217=\303\211\021>\221T\212\274k[\023>\036\230\240=J\222\364\274\264Q\376\275\3230\034>\302\272\327=sl\215>\237\222\333\275\002C\037\275\235|\213\275\177\247\346\275O\'\374\275\377\372o=\251\320\235\275SJ\250=(\221Z\276j\336?\276\037\336H\276\025\0226>|\310\036=u\363#>\312-I\276\241\"\206=)\254\206\275\317\026\030>\206\032N\276\276k~\275vn\027>^m\201\276\250]\220\275,\037\035<\255Y\224\274\352\365C:\374\376n=x]*\276\374\240\000\276\335\236c>\302Y\220=\212\326X\2768\362\247=)\031\217\275\362\225\310\275)\207\323\275\311\354<\276U\243r=i\240W\273\320\313`<\356g[\276%\367A\276\210\307q\273c\264\021>6\351\013>\3611\362=\320V\030\276 \276*>\301\230C=\243\206R\275\256\304Y\276\251\037\023\275\214\320N>)b\341=}\371\033\276\252\212\006\276\032e\276=\216\263\027>\340zD>\353w\225=\230\032:\275H\026\022\275\231\320\373\275\242\200\010=\027\007+>\022\374\t\276\210\311\203\276\235*h\276(\247\360=\233o\332=\335v\037\276\320\327v\2760\321\261\275\225\240\006\276\224\245.\275\314J<=\332(\362=\027[\\=\273\014@>J(\267=#\371G\275$\016\035=\231x\020>m)t\275\250G\343=\322\327\277\275WQ6<\225\312\002\275F\034\354;\266\001m\273\273H\177\274\323\240\027<?\250d\276&\323\201<\324\263P=\270\250\315<\"\203\375=\027\377\363\275NB#\276\026\212\257=Y\001\200=\316.h\275\335\230\316\275(\256\317\274\237\212\037>\371\306A>\226\371\271\275%\367\266=\344\003}\276\320\255`>\2661\243\272J\374\367=\375\254\207<\342\340W\276\212\362\352=f#\326=\204\266\017>\256\307Y\275\305\217K\276\302\263\023\276\306\260T\276gL\016<\231\314\254\275a*\177>9qW>\221\311(>\224\356\260=\374y\023>\225\3071>[V\357<A}\r\276^\337(\276G\020B\276\351\032&\276XC\257\275\010\024e=\0017@>\222\2344>>z\021>\375\024\002>\360\343\027\275T\261\014\276n\030a>H\372\000>\013vw>&\025\237=+\306?\275\366E\254\275U\001_>\023\344V>\226\001\262=\030r0<hfT>\337+\316<\367\006\">\006\177\236<\210\"Z>8\271&\276\253g\014>\316\212U>\030#\362=:\342\213>\304!L\275\200c\200\274/\224N>\034\344\306\275\275\004d>T\244\031\276\347\321F\275\204\254&\276}\206\023\276O,\360=L\003\271<\323)\205=R\2340\275a\272\376\275u\305\020>z\375\201<\354\373;\276<\240\315=%\254\225=\374\2420\276J<\007\275\006\2457=/\311\225\275\222Q\361\272\332<L=\264?\206\275\260G0\276(~\001\2759\014-\276\322\210\257\275$\027t\275\370\335\324=Z\014\305=)# <\001\\\204=\263\"\251\275\252\314J\274\317\320\352\275\266\004\036\276@9\201>\264#\">\000\205B\276\216\007\242=\222\360\212\274Q7\034=t\321r>\\\307\010>\342\000C\276\304-\314=qr\320=\250\027\343\275\001\014\206>\263\244\002=\326\263\"\276/\2261\276\t\3071\276g\233x>\264:@>\221\326\t\276I0\227\274\027\345->\352\333O\276\201*\311<f\311 =l\334y\275:\024\244=\223I\207>Bag\27693\013\275\222M,\276Z\341\267=\234j=\275\224\237M\276DA\034\276\035&Z>\351\266\031<\371\373#>\255\321\225=\207\252N=s\001\000\274\300\360\301;\024\263\314=\256\022\346\275\322\264.>\306\'\025=z\006Y\276a\273\026=\352\337\224>\332\322U>\211\037\221\275\236\003\261\275\027\221\010>:\321\347\275\312\267\033>\tc8>\315\271\205\276\366\351V>S\2027>\013\270\242\275M\254h>\022\324\316\273R\373I>\340\346\267<\241\214!\275\251dL>XM\252<\214\0216=\0264I>\373\202d>\004\324\277\274Th\206\275l\014\003\275\263X\322=?/\365=\005\312\366\275.\307E\275<&|\274\207f\205=\023\256E\274\215g\254\275\355\274\254\275\316\354\001>l\336\212<\323\332k>\200/\032\274\177\021>\276\016|\005>AJ\254=\234\200\222\275 \334\235\275\t\005\355</\000-=\373\003\272=\024\221$\276\204p\003\276\013\221*>l@\013\276\\y\225<OTz\275\254\r\207>:\024\027>\316(\264\272Q|\330\274\214\3658>m#L>\024\010U\276\247q\021\275N#\023\275R\023X\272\251O\371=\335\315\247\274\304\225\002\276\013I\220\275 \354\313\275\240\301\002\274\016\331*\276\031\'\r\276\233k\341\275\370\233R\276\262\200\222<\224O\024=\342\265\024=\272\277\346= k\304;\351%S>e\363\005>\333\266\r>:N\326= \320\326\275q3\006> \3074<\000\333V\275D\2579\275\270V\227<y\3576>\000D\033\273J\t\257\275\221\342\365\275D\001,=\"9\347=\250P\020\276\t\002\037>\231:\303\275!\0279>\234\352\177=\204\331\025=\273\023\036\276\256\006\312=\234q0\275\221c\275\275YH\311\275\241\326R>A\032\002>\222\304\205=^)\334\275L\236\002\276f\334\"\276,vY\275\000\322\301\272\016\n\342=\364\374S=\243\242\017>)\222\276\275d\201c=\224\244\n\276n\\\006\276\000F\230;\213\352\302\275V6[\276\324\364e\275\234\370\025\276\234S\257\275\360\t\361\274\326JF\276\217\275\311\275[\3721>\217\265\357\275\243\247>>d\243\036\275\326;\205=R\177\210=\227e\316\275b\253\330\2756\363\261=\373\201\013\276\022\341\357=w\213\025>\300\357v<\313\025\000>\244\206\260\275$\020\005=\204\270\005\275\221\366\010>\tyK>\364\023z=\276\306\240=\334R\264\275\\\253X=t\216\022\276xj\237\2758+\014\275\021\217/>\320\305\034\274\240\"\307\273_5P>5\310/>\330X\223\275A6\r\276\346_\201\275\032\203\231=-&\017\276\033\035\021\276\204\'\300\275\251\021\005>\020!\357\274\000\223\366\272\352)\330\275\247\342\020>\327\3717>\033 Q>\202\323\254=\207$\037\2768\256\372<\330\243\307<\304\274\177\275>\365\241=\331p\005>\006\361\336\275\001\306\\>\354\277\221\275\214,m=\010:\340\275\353\001V\276\342S\337=\316\035\"\276J\351\347=\322\340\230=\315\335\r>\200Uy;\346\324F\276?01>\240\r\335;\326(\006\276T\312\335\275\325\003\000>\224\362C\275\214-\251\275\222\273\336=\300\324F\273\367#Y>\352\177\010\276\227\232\"\275\351m\276<\2471=\276\356\354$\276\t_\377=\007\203z<\352\374\277=\300g\375;\222\337\312\275\222\211s>\240F\202<s\023\004>\300\"k;\261\007\327;\214\233[\276C\371\212\275(\'\250=\"\356\023\275\371\201\212\276\230\275\310\275`C\262\2757\332M>\2270^>\003\340c\275\'gX\275ZW\240=\031\230\303\275\r\223-\276G\n@\275\"\325Q\276\241\023V\276\235\332\032>\357p)=u\3526>0S\240\275\336=\324=\000\013\270\275\\\005D=s\231\224>n4\007\274wI\343\275?W\325=\205 \252=\253\246]\276=\313\366\275|\310{=\325*<\276\340\233\201>\347^F<e\025\367\273\200\231\325=\255OZ>F\276\243\275\302z\311=\330\327\245\273PG\023\274\021\324%>\365\337f>~\237\257<L\223P=\335\036T\276\240L\215>\277\267\260\275\036W[\275\267S\205>d\3348>y\270\'>,\221\n\276\005\203M\276X\227%\276\374\237\n\275\346!\002\276\370UL<\373\274a=\027\366\347;\315$N<\240\035\006\275plY>p\024\001>\220\366\360=\346\224\\\275\216\217\n\276\351a$>E\\\233\2739\242\300\275G\206\271=\374\220\266\275\304\027Q\275\200*K\276vv\r\276\305\201V\276z\243{\274\355\334\347\275\360\264\003<\220\300\032\276\021Q\212</\212V>c\013\002;\260g\010\276\35607=zE\017>f_\201\275\305\242+>\362\315&\275\226=\016>\203Gc\276{{x\275\324|I>V+\025\276\020\035\231\274> \024\272\033{/\276\027\220\010>eqS=\306\361\t>\375\251X\276#Q\006>:\256 >\370OD\275kJ\304\275i\226\030>f\271\261=\372\240.\276\245\330H\276\202\2105\276\275v\202=\003\035\335\274N\'\343\275\035g\032>\266\206\224=\034a6\276\242\337V\2769I\031\276\302\007p\275\310=\003\276\203\200@\276\321?\251\275|[;>s\036C\276\305\231\304=\252\255\344=Fh\206=\235\r\362\275a\222x>\306|\024>?\270\023>\263\351\002=8\311\204=\025\243\373\274\204\231\034\276\226\006\222=\311g\270<\246\377\032>\300T\304\274\3023\222=/f\307<\257/J>\203\305>\276\366\377\016\2761\326\'<\r\270{\275|<D\276:_\235\275\340Cb\275ag-\276\245\335\033\276}4N\275E\217H>\032\"\017>\034D\335=2\352X>Y\030\301=?\365;=\rE\036\276U\207s=\246\316_\274.\276\\>\202`\364\275y&\r=\255\234]\276O\367\002\276\266\033\271=,\213\002\276\000\276\014:\253\227\335\275\212;\005\275\276$\240=\321\324!>\207\030\252<\345?\352\275\241W\255\275C=\374=\223\035\231=\217K\324=\003M\220=\010\245\260\274\223\034G=\217\262P\276@\311\274\275b\027(\276\236\305\006>\346\0148>\274\307Z=/\353\010<\300\252S\274\263f\025=\231\033A>-\3769=\262ML\275k\351Q\276\221M\257\275n\253\t\276`\317L>\013a.\276\037\247P>\'\001\243=\351~S>\374\242\013\276\2077\001>\030<A>\205{\335\275\031v<\276\2142!\275\020\213\027>\324]\030=\305\260\307=(\211m\275HPL\276+Y\001>\206\344\\\276\241\307\211=z\260Q\275\t(n>\026\323\233=\217i\255=\035\332\362\275\006z\030\276\363\223%>\356\3711\276\017\3669>\r\202\276\274\2101\036\2766\200,\275\252\037\004\276\346%J=\315\007\034\276\364q\235=`\247\371\273\233?\'>\202\260U\275\204n\257\275\034\337\'=1\0219=\316\026s\276{\3305>\346\006\001\276\262\"\314\275{\341\032>\\\004\021\276h2\024\276\341]\'>.#H>\306 \243\275s\234\020>+\350\343=\030(\013>\007\251w=\355\207,\276\315\366\277\275\202\373M\274\256\000\234=\351\356>>\305t\026>4\237\021=\206\323\004>\377\206\\=\260\336\363;\367\305\203\276\326F\246\274\254.\273:B\340A\276`U(\275W\342E>\243\343J>\300\236\271=\007\"2\276\316\276\343\275\331\250\273\275\200\343\251\275\271<[>\340\227\272\275\343BY=\271\250Z\275\267\235U\276\203\350\374:@a\t=\362\320z>\334\373\216==\'~=a\233\250=\242\271/\275\312\032\263=Bb%>\252\364B>\374\335\177\2761\240\254=Z\357\256\275\372Q\355\275,\223[>\022\3520\275\223\260\030>\220\263\311\274\314to\275|\247\010>\375Jg>\274gW\275\355\t\010\276E\344\225\274`\254\036>\340<:<\376\377\242=t/w\275 \312\264\274\013\0236\276W%\032\276\370\331\272\275S\330N>\344\337\304\275\200c4\274o\322.>\035\241\303\275\276:\242=\034\3618=Q^E\276\341\316\013>d\352:\276\344\'i=\226\365\253\275\322;\216\275RB.\276\364L\317\275\026\342\231\275\220Nr<\0016Z>o\362.>\237\255\025>.S\256=\340\333\363\273\001\374S>\210\241\335<\345\340J\2760\346>\275<\'u\275X`\231\275\367\371\023>/\273+>Q^\026>\227J1>\362\237\220=>\256\230\275(\343>\275_\323*>\2267\272\275\313oN\276\254;\220\275_\272J\276T2U=\347\321 >c\224Z>\000\350z\274\246\263\343=\273D\005>*|T\276ro\272\275\317\221\003>.\257\341=\200\330=\274=\226(>\223\261\014>1\315\033\276\026L\207=\274\363-=tA|\275\025\023\332\275\311\357\341=a\206\312\275@\362\375\275qp\345\275\372\233y\276\211A)\275\354\205?\275\316\031\236\275^Y\036\274\323C\277=G\253\326\275\2431\023\275{\234\376\275~&T\276\340\213\371\274q\344\311=\247\324h\275*\341\004\276\216\303\203><N\336=\242\241\365\275\017aO<r\357\020>@\333\331=\245\347F>\020m\215\274L\254c\275\367\0230>\366\333\016>\210\261\270\274\022\301\312\275\203c\236\275%b\034>f%\350=\356[\301=Y\251\022=~\302%=\266;\035\2762!/>\020\031\274<\250\374Z=\te\004>\031\272F\276\014\0273=D\2408\276\276q\264=\377\320\024\275\200N>>N\350-\276|\275\301=\247\020\\>\234\307M=:N\237<\026\017[>\240\347\216\275\000\373\013\275X\356\307\275,\234\367\275\022x\215\275\222\327\\\276\037\222\023=\226)\030>\275\372E\275\230\317\310\274Y\364D\276\032\245!=\306\314\\\273\324\022i\275uA/\2753lm\276\246\335\254=(*\330\274\256\254\246=\003\376!\276\261k\355\275\323\255\356=.\342\230\275\274Z\216\276/\343U> \210g>:\001\362\275v0.\276\324\367\017\276;.\204>\233 \267\274\024\245\022\276\004\313E\276ip\004\276\224\013\324\275\370MJ\276\257/\206\275\203\255\363\2749\265\234\275\262S\371\275\261&Z>\004\307\005\276\300\302;\275n\030y\275@c\026;E\177\001>\232\'\373\274\275\250\253\275\371\261\204> e\226\275)tI>\212\256:\275\254\000\022\276\000\223\313=\230\r\034=\334\3749\276(\3357\275\374m\'>L\030.\276r\360Z>\263\2610\276\021\343\221\273\235q4=\272@\030\276\316`9\276\326\202\362=\350\024V\275\334a:>`@\014>\320\243\321<q\204->=\202\242;E\325N\273\005eX\276m\221\337\275>\370!\276\325O\271\275\201\264\n>?\321e<\037\3035\2760\333\260\2758SW\275\017\355p>\010D\266;$\253\313=tz$=\321=\014>I\277F\276=w\321\275\307\263\007>\360\302C\276$\010\016=E\311\374\273\343\026u>\021\276g\276\305\303\327\274\273\025\227=\244!\340=\247\333\030\276\373\306I>\247\\\034\276\354n\277=\324b\247=\270\326\344<\300\230\371<\260c{=C\376c\274\"yK>0T\235\275\030\330\300<\232\211f\275b\344Y\276\334\267\363\272\235*\t\276q\362\242\275\037\230\371=\023\010\275=]\366\r>\331D\036\276eh?>X>\216=\212\271\267\275U\326\230\276/C\004=mJ<\275\014\215\005\276\2665\323\275\017U\246\275\323\023=>\364d3\275&\220\322=:.\343\275\303\3076>\004\024\004\276\371\243Z\273u\026\341\274\262\036\007\276\324\347G=<\303g=\032\366\357=\210Y\264<NM\253\275\343\312\022>\240\035\017<\350\362\322\275\320[\207\275*\261\006\276\260\023\270\275\000\366\010\2768\272\341\275\322\200\246\275\375\006N>\250\373_\275\254\\v\275\257RS\276\000\376\230<\247\323N>\"\353\314=\365YO>\354Ot\275\000\346\244;d\r)=v\010\005\276\316\230\346=\255\356\340\275)f\341\275\010Q\271\275kOB>\252\340\016\2762\335\245=I$,>\313\351,\276V\257F\276\354\316o=\004\2504\276\271o\010>C]C>\214\260\r=\350\'H\275\360\245O\276*\251\235\275\240\347\315<{\2563>\250m\034\275f\354\361\275\344\351\005\275\311\204Z>`#[\274\010\231\361\274B\366-\276lhH=\247\242O>\242\356\216=\372\350\220=\326\005\374\275\315\3273>\256%\025\2763\3559>\014\005\033\276\340.\373\273\220fk\274\367\267F>$B\211>\207\252\205\275\006\003\313\275\023rU\276,I \276\352\251*>Gy\r\276\022\032V\276\344\307\260\275Pk\371\274\335!\354\273j\355/>?\253\034\276E\312(=\232+5\276\373\313t>]\r\200>V\325\246=$l\016=G<\207\273\203[\362=\317jO>\225\301\353=@?]\276\330\374\223;d\356K\276\003QL\276\355\003\255=\227t\"\276\240E\377\275\274|&=;\360%>\252\260X\275\375\271\274\275\240\300\307\273\2241\267\275\304\350\232\274\353y!\275\255\213O>G\256v>\351\233\002<9\021\001\276@\346\003>Y5\226\275\221\023\262=\000(\351<\325\257\313\275\376\255Q\276\375\210\331\275\305t \275)\020\251\274\t\270c\276d\337<>2\027\350<\221\267B>\206\373\336\275\001+\344\275\245\213`>r\031\245\275}\317\'\276\377\300<=K\256\000\273?F\003>x\360\364\274X\360\257\274\020\271\036\274\036\261\305\275\r{\016>\010\214\005\275\3244\024\276M\352\036\276/\262.>7\313\'>\264\204\265\275\224\372N\275\226V\225\275\244\261\020\276\236\"\364\275a}\321\275\3515 >\035\224->\374,\"\275\356\343\251\2757\212\376\275V\252\203=\000\240\224\273@\365J\273\310\236\353\274\376G\335=\26285\276\260\304-\275\371*\370\275\370\345\357<\343sO>\014i\n=~$\322=/\362\301\275\371\230\031>\327\3736>\330\303\216\275\200D\303:\334!&\276\353_9>\207\211\000\276:z\210\275T\277\232\275h\352\301<\025\034\022>\311\014\016>\356\200\226\275\270[\272<\200\000\352\272\346[\334=0\027\306\274;\300#>\206P\016\276\201)Z>vo\375=\243\203)>\340\251\214<\266\020\014\276\300\220\225\273\270\3169\275\\\014b\275\000\317m<4\013d=\306\025\305\275R\252\030\2762r\316=\256\231\351\275\346\033\243=\234\000\003\2756\352\213\275\240? \275\232\026M\276<\256\024\276\337\213\277\275\026\267\214=|\214 \275\361\032O>\000#\257\274<\330E\276\365\375\032>f\005\221\275\034q\021\276\240-B\274\220\027\006\275p\323\034\276\000`\237\267\331\320->\330\226I\276\211\371?\276r#\310=l\025$=Pl\244<#\304\311\275\274\315{\275z\270\276=\2702\263\275V\354\362=\336\347\200\275\314Cw\275\362K\334=\330A\227\274\324\'f\275\274\356V\276\026\211\351=3\327A>\302I\244=8>\317\274.iG\276\310$7\275\363\331\000>`\227T\276dc\024\276\336V\362\275DS\333\275\227\200\030>\226\321\274\275\304Tx=\200\0021\275\304-\017=\"\374\236\275_t\026>,\267N\276\320\235\306\275|\360~=\242\253\226=9\355J\276\226jO\276\334F\\=\031\301F>\333\230\343:\027\257D\276\272t\344\275~0\223=\251g\223\275\';\030\276\277\0109\276\000\314h\272\'\224\306=\367(6\2769\320\314=(X*>\262\\\356=\205\316_\276\340\372\354\275\007T\352=\253\204\360\275\320\2211>\225q\270=N\010z>\347\\\236=M\010\236\275\263Ss>([?=\201nL\276EpY\276u\236!\276b\241\t;t\017$>\253Y1>\223\362I>YU\236\275\256.\007>M@\231\275\000\214Q\275e\326Y>>h\240\275\212\222,\276\340\241+>O\221\032\276/\346\257\275\250#\025>\014j[\276\303/\004\276B\023\221=\227\243\003>\325\371l\276\344\254L=\231S\010\276y\312q\276n\223\333\275\323> \276{\026L=]Tf>%\321\375=\266\004\315=L*\226\275~~A>\021\341b=\245~\310\275\337\204\374=B\264\022\276\223b\356\275k;+>@\240\222\275\212\247\232\275\354\246!=\362\r\251=\321\266X><\177C=M\025R\276@\372\264;\215T6>\013\317D>\356y\213=<I)\276\272\365\307=l\320<\276<\232_=\022a\267\275\345?0>\255S >&\202\373=2yS\276}\222T>*\020\347=\326Y\245=\224\213i=\347\\V\276\226\300\034\276\236~\204=\316\214\316=\254n\004\275\304/\006\276`\243D\276\274\207\314\275\274q\037=P[&\276\322\260\036\276T\213$=\330\352\007\275\220\344\373<\206&\221=|\222+\275\002\342M\276\020\005\212\274$\256%=\342,\244=\372\241\202\275\020s;\275\266\240\204=\360v.\275\324\003\317\275\254\365f\275\330\027\217\275\332\354\200\275\361\276\035>nw\t\276\000\350l<\210\024\310<L\315{=8\033\201<pg\300\275\334:v=\030u\367\274\2372.>k\312M>\226;\025\276\370\306\334<\370 \026\275\"\204\216=\000\333\255:\030\355>\276N+\332=\322w\227=\216<\204\275\266\354\236=\224\375[\276\020N#\276\236\325\253=\343\255U>\374\315,\275/\331\002>\013\213Z>T\221~\275\262#\205=\354\217~\275\022`G\276#i*\276\270\026\324<\034\362-=\260\2703\274\372\205\351=R\034\314\275R\226\253\275\220\326\320<\252-\274\275\361\024\316\275\302\360\255=\221\354F>r\"\r\276\037\335\036\276mv\033\276\216)T\276\224y_\2752@\014\276fQ\215\275b\343\255=\rC+\276VK\324=m`Y>\240\241p\275\336\201\032\276V<\213\275\020\324\333\275\2604k\275\207K\022>\2609\262\274\343U\002>-\3628\276wz\025>\232\211\314\275\351\316\026>\300\216\177\275\000p\216\275g\"]\276(G\206\274(]3\275I\367\006>_\262 \276\022E\376=pP\032>t\360e=\253\302k=\363\344\270\275;n#>3N\350\275\230\202\024>\020\203\324\274\004\355G=\320\270\240\2757\310\332=\\.q\276e\313\214>I\036.\276\240\262\321=V\000\n\275\316\"\305=\004xG\276\334=\034>4\354.>\356\000$>\\\230\223=Cvi=\"\353\'>P\344e\275S\267\035>UbW>\030\344U\276\367\326\361=_\305\254<\347\307=>]54\276A\365\207><\351\351\274\366\361\027>\244/\006\276\270\275\231\2742r\031\276F\345\252\275\232\320\213>\205\2661\276\254\222K\276Wnh>-\303\243\275RKj\276\236\201\331\2751)K>Gd\203:\342\034L=\233\005?\274z\036\321=U\016\254\275\264Q@=\261\263\242\275\341\360\210=t\244\222>\200\356\257\273\260\230\026\275\253M\224\275\322\223\204<\230ER\275G\212*\276\243)\216\275\03230\276\016F^\275\277\n\273<\017.\271<\270=D>\320\016v<.\260\n\276\200\266U\276\020\373\356<\216M\207=Ow\013\276X\267!\276\'PJ\275\226hB>)\245\010>\335|\275=\371\333\371=\304S\224=\020\245\000\276\226\337\271=\351mQ\275\223q\037>\313R\312=\264\211\272=\221\222k\276\374\256\225\275\305\014\211\275\310\032\001\275\025\356\014=\n\222\021>\213j\017>t\234h\275\246\007\357=a\357@=\275\3773>\205o\"\276\317\005X\276O0&\276M\"\271\274n\212R\2769\327J>\360\022\246=\235\222\013>\025\177\253<e\321\224\275\361\"\034>\3016\003\276\237O+>\352\302K=w\367\230\275\255T\330\275\242\253\t>\257\327s\274:m\202=p\001\200<\325\313\037>\221ee=\237\332U\276\221\023%>\237\203->\035\210\302;G\253N\276|\266\316\275\275\322\027\275\271\262\036\274\031{\351\275p\220n>\313\017\255\2752\010\017>\366\001\326=\372\032\224\274\030\370\024<\246/\366=Q\004\016>\242\025\337=\200\367U=m8h>:f\224=M\\\026>\330\234\273=\340%\263<3\351\272\275\321\217!;\252\234\310=\245\'\006>=\036\225\275\027]\261\274S\010\277\275#C\243=d\350P>\325I\r>\350\177\020\276z\005\322\275\213\301\254=\337\244\201\275\364$\030\275=\257;>\232r\007=P\221\272=\236W\235\275\316\333\247==I\340<\006\370\200<\362\2509>\3107|=\232\233]<\004\2635>U\321\322\274\364L\"\276<\375#=#CY>\346\027\355=\010i\214\274\266\253.\276q\377\346=X}c>ue\034>\234\377\035\276=u\231=0;m>\360\n;\276 \312\307;\355\0256\276\030\2476\275\362\211`>\016\325\242=\334\333\202>\321\201\262=sA\373\275\250\362\232=$\007\255\275\360\272x<\307\341*\275\343\322N>;?\331\275\037_\005>\343y\"\276\032\315\247=4\355&\276\300\324W\275\024\226V>En\274\275\240\257\223;|\265C\275m5\225\272\212^\310<\024C\024=\220\003\302\275c\263\036\276\245+\321<\253\367 \276+\257\355\275\2338\350\275\340+\355\2752Y\020\276&x\224\275\336\313\365=D\272\364=b`\331\275\035\220=>L\227\204\275>M\355\275>\376\244=\360\237\n\276\374s\220\275\350\310\303<\245A\027>\226\016\373\275\356%N>\372\254*\274Q{\025\276@\2468\276q\307 \276T\2232=\022\007\230\275\213\355\022>\006i\265=t\2158\2752\253\365=B[M\276\000\034+>\353\210\027>>\252\332<1\2230\276\374\3254\276\226\211\324=\342t\374=\215\002K=1\204H>3\242\001>\032C\200=\010\332\370<#g.>"
      }
    }
  }
}
node {
  name: "sequential/dense_1/MatMul/ReadVariableOp"
  op: "Identity"
  input: "sequential/dense_1/MatMul/ReadVariableOp/resource"
  attr {
    key: "T"
    value {
      type: DT_FLOAT
    }
  }
}
node {
  name: "sequential/dense_1/MatMul"
  op: "MatMul"
  input: "sequential/dense/Relu"
  input: "sequential/dense_1/MatMul/ReadVariableOp"
  attr {
    key: "T"
    value {
      type: DT_FLOAT
    }
  }
  attr {
    key: "transpose_a"
    value {
      b: false
    }
  }
  attr {
    key: "transpose_b"
    value {
      b: false
    }
  }
}
node {
  name: "sequential/dense_1/BiasAdd/ReadVariableOp/resource"
  op: "Const"
  attr {
    key: "dtype"
    value {
      type: DT_FLOAT
    }
  }
  attr {
    key: "value"
    value {
      tensor {
        dtype: DT_FLOAT
        tensor_shape {
          dim {
            size: 64
          }
        }
        tensor_content: "\0267\230\274v7\212=;\256U\273p\374O\274\000\000\000\000\215\272|=\277\361\255=\000\000\000\000\000\000\000\000Y\205\370<\207\357\275=(\217\030=w\3452=\000\000\000\000\206\327\236<\256a\035\274-c\327\271\033\227\227=j\027\375\273D\336\247\274%\345\006<q\304\305<E\230\016=f\006`=\350}\365;\340\014\006=\000\000\000\000\377\376\271\2734y\027\274e\233\215\274\000\000\000\000\000\000\000\000K\365\267=y\232\333\273pVN\274\000\000\000\000m\305\001\274\022.\257\273]F\253\273\365\001*<\303\374)=\3459\303=\022\362\231=\014\033-=\027Ar=6b\203=\000\000\000\000\366\206\241\274S\264\350<`\246\243<\270,(:(\212=\274{\371\305\273`,U=`vR\274\375\261=<\000\000\000\000\000\000\000\000\337\205\333\272\253p\264=\000\000\000\000Bu\311;Q{U=\220\300\250="
      }
    }
  }
}
node {
  name: "sequential/dense_1/BiasAdd/ReadVariableOp"
  op: "Identity"
  input: "sequential/dense_1/BiasAdd/ReadVariableOp/resource"
  attr {
    key: "T"
    value {
      type: DT_FLOAT
    }
  }
}
node {
  name: "sequential/dense_1/BiasAdd"
  op: "BiasAdd"
  input: "sequential/dense_1/MatMul"
  input: "sequential/dense_1/BiasAdd/ReadVariableOp"
  attr {
    key: "T"
    value {
      type: DT_FLOAT
    }
  }
  attr {
    key: "data_format"
    value {
      s: "NHWC"
    }
  }
}
node {
  name: "sequential/dense_1/Relu"
  op: "Relu"
  input: "sequential/dense_1/BiasAdd"
  attr {
    key: "T"
    value {
      type: DT_FLOAT
    }
  }
}
node {
  name: "sequential/dense_2/MatMul/ReadVariableOp/resource"
  op: "Const"
  attr {
    key: "dtype"
    value {
      type: DT_FLOAT
    }
  }
  attr {
    key: "value"
    value {
      tensor {
        dtype: DT_FLOAT
        tensor_shape {
          dim {
            size: 64
          }
          dim {
            size: 64
          }
        }
        tensor_content: "7\252\023>\303?)>\270G\316=\'o.\276\351r\275\274\010u\030>\3763\277\275\270Q\200\276\243\335\204\2768_;>?\206\374\275\021)\027\276\320.\022\276\362\222@\275\2048o\276jm\002>I\221\214\275\255F\253\273(\326)\275\240\231\375=\266\001A>\233Y\007>g\316N>\251b\021>8D\321<\376\272 \276~\036$=L\3628=\027L\037>\220O\034\276\035l\274\275\014\343\217\275\310.\272\274Xu\250\2758\376\220\275d\030\237\275\344\231.\275\016\nW=\246\2636>`\027\350;\013\245\316={1 >n\364\017\276xG\000\276\332\220L\276\014s]=\363]\'>?w\335\275\301\2614\276\334\304\034\275\254p(\275\311\244\353\275\257\325\003=\230\260\267=|\327\305=o\307,>\n\335 >\202\276\363=\255\340\023>|\031*\276\230\017\032>\327_=\274.\213\205=\300$J<\256,c<\304\257\177\275g\037\212=:\237\031\276\275\370\377\274NVH>\305-\'>V\264\020\273\324_]\275\3512.\276\300.1>\220\371\225=\230\306\017>\n\311\264=\203\356Y\275\242d\276\274\344\2543=\220\364v\275\204\t\033\275\356\017\217=:\205a>\n\251\224\274\374\030R=\245\026\351=\223\330k\276\334\024\027>\027\275/\276\023o\314<\240\235@>1\003\007>}\3054>\341Q,=0)\225\275>\0377>\021<\002\275zfO>\302\376\270=@\224\242\275\275\252]\273\267}#\276WE\263\275\201\204\207=\025\037\331=\016\211\023\276\371\314\001>Z\177\025\276\033\222\227=jt\341=\2455\310=\0315\004\276\327\'\251=c\327\311=\362\325\233\275RI\022>\252V\036>\026^\357=U;\311\275\242\372\021\276\375\240N<\212c\350;\3621\212\275c\014B\276.\344\201=\320\033\203\273\356Z\030>0\032M\276\226\224\325\274>\225R\276\244H==\014g\247\275\263\312\350\275\245\010\331=\244\306\017=q\271c<qz)=\013\007\360<`\344I\273<!y\276\025c\002>uF\373=\375\035b\276\377\\\322\274\000\224\340;\331jU>\253\"\201>\212\177\272\275M\227\374\275\275\241[;\364\006\016\275\242O2>\335\2237\276\0209O\276Y\207->2\037B=\361\026\034>\232a\301\275-\337>>\324\245\261\275L\304\331\275\370\3611\276\"\370C>\001P,>]\214\315\275\274[\377=\242h$>+\325O\273\034\354x>O\220\315=\251\312\233\274[\302)>\0258\232=\t\317\313\275D^/\276@._;~{\220=\312\357\362=\014\360f>\302\377\023>)*\222<\233iX\2761\313L\276nS\330=V`\351=`\'y>\326i\021>\213Cp=\263\2409>\220\240+\2757\340\016>\252\314\354=l\372e\275n\307\267=vx_\276N\341\023\276\334\346\272\275\357\301 =w\234-=-\003\373\275\354\254]\276\020\354\302=b\344\037\276\345he=@Z\007>\217\023_\276\363\325\371=\336\312\2429\370&~\275\253z(\276V\217\252\275\022U\"\276\244\206\004\276j\004T=F\253\373\275\261]\345;\237\341\325\275\377\253\311\275\237\222T>JZh\275\216\330\216\275\264 \375=\372C%>\240\257\346=N\275P\276\0250*\276w\310\354=P\337\222=\353\204\267\273\276\237V\276g\216\302=\002\n\"\276H\217\207>\3016\237=\370\023\265;\206\000\033\276\212\235<>c\004\013<\277\200}>s\3607>E\347\315=c\264y\275d\334\306\275My\255\275\014|\363\275\374\314\245\275\34345\275\264\230\"\2750\220I\274rE/>\343mh>\374\002\360\275\227V\276\274\002\264\200;\204e\036=\302\006\260=\266*9\276u]\'>\036\340,\276(\223l\275\352r\n\276\242_\206=*\241\002\276\366\216\306=<\235~=DvD=1\034\032>\026`\233=[CV\276\024\275P=p\002\352<\253c4>\207\263C>\200\n#\274\316\227\343\275\216X\303\275,u\261\275z\300\271=\002h\363=~\205&\2767\311T\276}<8\276\320KM\274\257\010-\276R\354\205\275\315{0>@\230\222<\263\375->\"\311\252\275a>Y>\311\3672>S\035\024>\'\017\006>\272V\262=@\375\222\273]\251.>\212\001\255=/X5\276\350\\\222\274]\367\352\275YvB>\004\027m=aI?\276`\322\366\275\210\215.\276\244\227;\2769a#\276`\006\024\2760\007j\274h\nE\275@\033\233<\216_\006\276\244\334 =\264\273u=\375\004\"\276n\251\241\275\313P9>@\026\266\274\031\3120\275\342x,\276\312\221%>z\366\236=\304W\022\275\314\313\355\275i\224]\275\254\004\021=*\311;>0b\025>\202\207\016\276Au\013=\005\244C\276\000F=\2769\342\351=\253\336\004>\236\253\035\276N_o=\251\t(\276=\226V>\355\023\237=Q\004O>%\366>>h\370\226\275&&\256\275\032b\217=w\227\300=\245-\376=\357L\330\275\007X\304=\031\254\010\276\262\2137\276\342\243\256\275*\255.\276\254kw>O>\225>\"W\224\275\262g~>\261\337S\276>\036I>\225\346b>\337\204\361\275.?\307=\315\304\310<\020L\267=\266^\241=\275$\303\275\261\366\005\273\026x\002\2743\336\020>\307p\036>?\262\205>Y,\366=J\003j9T\363\223\275l\035N=\000FJ\275\346m\232=\336\210\363=R\236p>T@\230>\220\220\311\275k\033\244=\256v\035\276\212\314n>B\263\000\276\327\330R=:\3676\276\250\241\200\274?\344\224\276\024\317\030\275C}\000>L\026!>O\352\377=S\0148=\037\240\037\276\263\016#\2763b\206\276\"\200;>\257\337\301\275\007\3165>\007(1\274\263\277\360\275\237M\032\274\013Z>\275\016\005\020\275\022\323@\276!\177\020\276\277cf\276X\200\335=\034k\213>\252{\256\275\362\353\205\275\034/ \276\233h\201=\026~\335\275\311l\017>aO/\276v\003\305=z\037\356=@\373f\273K\013>>!9H\276\006\2067>!BM>\357\316\312=\232\007\270<\026@g>\031!\014\275K\230P>P\356k\275\321\273+<;*\316=\251\270\360\275\245\2375>[\262\013=d\227\330\274\240\247\306<\253\230$>\220\331\232<!\014*\276=\304;\276\232,G\276S\244Y>fj\274\274-k\033\276\326I\036>\260\346\374\275gl\354\275E9M> \245\351\275l\246\022\275\344\225\256\275\034\"?\275N\233\245=j\237\342=\264sf\2753\322\324\275l\261S=\212\372E\2760\330\217\2756\317\331=\335\252\001>\021\370\017> Q\305\273\320\001\t\274\016\223\260=\035\351\342\275\322\243\037\276@dW<\347\220!>*\305\347=p\036\227\275\250\0328\276d\305^\275\3729X\276z\225\263=85\010\275\372\247\212=r\270\256=\312\233\355=:\220\211=K\300(>\010\021\321<\236\210\255=\236\2169\276\300\234\350\273\324\t\033=y_\013>\0000\203\270\304\366+\276\234\346Z=}!\016>\010O\262\275Q\222\\\276\214\203:=\177\205\010\276\304\361\035\276AI[\276\'\267\026>Q<\">\275\300\013>\030\273\206<\374\213\\\276\371\032M>\373e\n>5G\n\276j\334\277=\247v\034>\006\023\271=K\267/\276F\244\260=\324\022/\276\216\370\300=\240\262\247\273D\225\277\275\276\327\220\275B\251\223=\274\021\271\275u\0063\276/\246!>\013d\371\275\266\304\313=D\207\254\2757\300@>\206\334\322=@ZT\273\214\024\033=~;\352=\n\252.\276\026\241\260=\236@\207\275\242$\215=\302\010\022\276?\rW>\212\375\374=\214\345;=\236\314\027\276\220\t\314\274/v\026>l\234L\276\374\261y=\353\207\035>\020\316\244<\330\235\341<\372)\246=y\217\023>i\262F>Z\225\221=p:F\275\226\311$\276\240\024\237<6g\322=j\203\232\275\014\025\017\276\231\306\'>\2008\245\272\205\253\000\276\322\331E\276\010\276\032\276\310\3528\275\257\027\022>n\352\312=t\016_=\266A\226\275v77\276\366)\363=\203f\020>\202\243\206=y]\016>\2655\034>y\214T>O\001\006>\266-\335=\263\230\375\275\036\320\373=9\222h>@\322A\274\371\246\006>\221\326?\276\032\032\210<Z\231P=\t\026*>\021n=\275\200\212\255\274S\322!>l\257j>F\343\003>\302\025\344={\340f>]\210\030>\223\231c>\004\255\r>\000#\333\274\016\034\024\2769\262\010\2768b\030\276R\370 \276+~5\276\341R\204>\213>\263<HE\267\275\016r\265\272\3122\356=\321\263\371<\325\245\'>\202)\030>\030-P>\036\271\231=\001h#>\262<\353=u\271\243\274\315\233V\276\023\t\022\275\274\177R>\037\224^\275wc\373<\014\272\000\276\213=9=vG\250=\031\227\337:\032\255\324=\371\226\336=\326Hi\275\372\305\350\275\360[\303\275\251\200\031\276c:\220<\236\010\334=\244~\026>\247\330!\276\210\373\246\275\001\320\212>\201QH\276\240\376\263<\333\"\363=\246f\004;Ke\"=\261\320;>\224e}=m~\342\275#\0350>tf+>\324W\033=\000^y<\367\233\022>\013\371=>\226\253k\276\265\317\207>\'\360\305=22\207>\257\023\211=\372\235\001=\"\021\240=\327\320@>\303\243\203>\000\373\362\275\351v\256=\302\222\316=h\206[>\277q,= =\245\275\375\227;>\211\377\t=8!\371\274m\321X\276\357.\321=Y4\233\275K\2367\276Z%\316=\260s\223;\336\200\013\276\200f\254=T\302\033=$ss>\276\243N>\254U\020\276)zM>\003r\"\276!\311S=.\214\252\275\351\026U\275\331\032z=\341\022u>i>\276=\214\275\033=%G>\276\3760I=7xE>|\235.\276\025Z\026>\245\341p=QW\\>1\250p>\003#\023=\t\346Y\276l\t\025\274\217,+>9K\277\274\217\005\242\275\203\341I>\352\303\341=\010\206\206\275\036\352\002\276\220\253\241\275.\201\262=!f\201>\022\001\366\275`^\017\274\374\'\225<y\371\310=?\264\343=6\353\226>\362N\313\275J\344\033\276N\323$\276\031\"\250<\266\356\260\275\265\333\211>`;Q>\266\256\336\273\367\332(\276\010B\205<q\242\277=|\376\267=\200\212\241\272Ot\037\276\031\235S>H\307\273=0F{\275\007\322\377< \216\233\274\031\203S\276\013\243\222\273j\222\237\275R\240\330\275\332\342\"\276\304\207\007\276\362\363\377\274\nF\204>\006\032\371=\024\317\254=\257\035~=\247i\003\275oMi>\n\216\244\275q*c=+\373Z=} \007\271\n;\377=\333\271\006\273\321*E>\315\272b>\271\212\365\275\376\324\327=MD\250>5!\266\275\372\242\373=\000\257\355;\240v\306\273H\r\037\276;\305<\276\233\222M>KJc>\345JI\275\313\230w<\356\017\250=\t\323 >\034\220\201>\362U\022\276\\\301(\276\200D><\037\214\024=,\277/>^R\361\273\003\t/>\2641\345\275\204\232\355\274\377\255e>\313w\'>i\276\266=\302\344&>\034\330\360\275J\220\367=\325I\024>FGl=\n\314\257=\331U\302\275\214l\032\275\n\363!=\321\343V>\327.\370\2749\252\016>2\310\365\275\254\241\220=\2308\276\274z\244\331\275\337\314\007\276\255\2605\275R\246 >\300\3062\276j\257h=Y\230\021>\232=\236\275YX9\276\333rX=\'\314\002>\270\003Q>\204-F>)\333\302=\316}\214\273\252)\024=L\306\204\275\023\2706\276r\017\322\275\230w\314\274h\3365=\2207\313\274\'\341\366=u\215\343\275\324s&=\020\272\372=\354\032\231=\3162\236=N\332\215>l\271]=\214\350,\276\221b\030>x\2543\275EA0\276\346~%>u\304G>\354\324\r=\214\272\275\275\364\320.=\256\250\261\275@#p\275\206\0208\276\374\032\007\276\n9\261=\242U\022\276\252k1\276\351\273\006>k\240\001>:\207\032\276\031\267\016>~-\373=|\363|\275+A=\276D[[\276d77=\313\020\334\275\230\370\273\274\000n\221\275\2232\276\275\030+S\275F\353\230=t\004\003\275L\336\001\276\324(\035=\006\013 \276\360L-\274\267n?>T}W=Vh\352=#;\017>\236X\337=\200#I\274i\241\027>\223c7\276nB\273\275l\201D=\000!\303\274\364\205*\275\002\244\202\275\3460L\276uE\302\275\202\246\213=p\321\002\274T\035C=\242\261;\2760\272\262\274\233\257\362\275\\\216\177=\200\240f\273\300Z\377\274\375\034U\276ZR\031\276\245\3659\276\371\214=\276\300c\354\273rP\301=\030`\316\274D\325V=F-\335=\016k\356=#\021\">q0G\276\3573\236\273\210\364\265\275\347\"\236=\303\302\270\274\374\342\240\275#\357\006>\017\257\014\275\177My\276]\240\201\276\302\337R\276C\210}\275t\336\255=\271S\036>\032\254==\353\322\347\274j\232j\276\320=\014\276\275\t\346=\024`\323\274Z\ro=\265m\010>\200\344E\276\241%\255\275\231\\D>P\2568>\227 \013\276\220\203\211=c7\032\275E\260M\276\254\340\026>\3220\223=\361S\365\275[j\355\275\260\200.=qV\325\275\324\236J>\204\236\256\275\353*\261=\261\005|>.\241\276=\3306\255=\025g\217=\026\254\240:[\347\037\276*\324\016\275 S&>iG,>b\315\014\276}|\366=\274\376\330=r{\307\275\257\325L\275\370#0\274\226M\003\276\241\006\006=\260W\362\274\277\377\363=\372\320\215>\022j\341\275\263\274\204\275\370z\210>\372:\000\276\025\335+>\226n\344=\304\\\n\275xW\002= 8c\274\217\267\231\274\215K\002>\350\356;\275x\275\\\276\333\306$>\213\000\304;k2,\276\364DR=\020\003+\276_]\\>\247\202c>\363\302\022\276]\231I>f\232\300\275?\023d\276\301\002\344\275\314g\010\276\352\306\272\275\023d\035\276\301e\200\275}\241~=\003~V>\313vB>\273\276\n\274\247\250\025= l\241\273\326m\036\276\tKH>\3240\343\275\265\244\361\275\310\265\206\274q\253#>\017>\002<\260\332`<\277\242>>`\035\356<\222\342\202=\356\367\272=\304\371\226\274\262\2344=\005,\021>\211\004/\275\'\373\007>\302\302\031\274\251\240W>\316^\343\275\007\310\025\274\306n\325\275\234\314\317=\264\026\247=\004Q\r=\354\340\034\276\270\312\275<X\253\317<\030 T\276\031\034F>\273\356\032>\247\265\024>\007\255Z=\316\037\356=g\004\357\275t\243\243\275\226\376\234\275\222*\372\275b\020D>b\006\321\274\270\320\n\276\335\363n=\313!P=\314\0163>\376c\355\275\332\017\236\2755jq>b\"(<\210S\245\275\275%\r\275\206_\242\275R\251\233=`&\213=\001\277\345=x]\262\274h\374\017\276\240f\214>\003\003\014>\266\305\022=\246B\247=J\330\276\274\235\341V>\320\253\003>^\311m\274:\241\343\275\017Z!;\326\307w>SIP\276y\000J=\203\333\340\275\334OR>N\233\243=\253o\341<#\335K\276\370^\255\275\346d\016\275@\312\371\275_\265u>p\247C<\206\020\r>J)O\2760\027\230\275\264\264F\275\200\204\">h\007N\274\324\247\">P\330\025;\354/V\276\200\206*\2767\336c>\266\271\266\275\276!o\274\360\247\006> /?=[p7>\342\210?\276\244\352\317\274\227\332<\276X\262\020\276bP\234>Gn[\276\344\332$=\231\005\246\275|.\300\275\270\233\240>\225Q\223>\270\005\316\275Sl\023\276}\3341\276kd\336\275Fh\307\275\036\036\035>\230\275\023>>\353\366=\314\330;\276\233\363Y\276\357CW>\026\031\021>\3310\033\276\3747F=wfJ\2762\362\320=\233R\035\275\376\312\333<\017\271V>T\376\310=\363\366;\275\"\177\214\276\240Ay\274\306\347Y\276\365\303\203\276\027*\037>\272\271\266=l\245\032=\277\351\376<~\341:>\217\020\017\276\030\020\207>,\026J>\022Y\021>\241\374\034>\352\272\315=:\033)\276Vhp>a\222\006\276\177(\214>\314\237g=>\230\206>\313z\265;\242.->\204\0369>\271\016\013\275S\3245>\3768u\276\315(\337\275\007\231\215\275c)\243\274\006g\n>\373\323\200=\254\032Q=M\023\200=\375^S>~\023\332=?<M\276\2673D\276\302@\350\275\245\372\000=\3366r\275`\315F\276\035\261\006>H9\336\275,\214\242\275\022I\001\275QC\375\2755\3412\276\300\244\036\276\200\364\023>\034\365\255=e_,>\314\\0\276\010V_=\2249\245=7\313?>$\r\020=L\245\250=V\021\010>\277\301O>NJ\342=B\t\230=9K\205<\3624\"\276\371V\037>\322\332\243=&\036\333=p\355\264=\003\201>>\'\236N>v\0346\276R\244N\276|h\204<\010WV\276^\317\351=\036\226\303=\026\271@\276\300\301\302=\310\232\014\276\337^\351\275\2018R>\324\367\221\275\261\003\203\275gv\014>{w%=\002\020\363=\305o\246<%\234G>\214\0253\276\037\025+>R\322 >f;\370\275\242\362\236\275\2745\034\276\300\266W\274\246\302\236=\032\000\350\275\224\362#\275~\014\237<\001\236\355\275\231\363\202=\240\230\'\274n\247\010\275n\344\224<]_\335<yn\255\275w\036\010\276\241p^>[\335\031\276\255Z\031\275\231\314\335=\363`\267\273\336\376*\276mK\377\275\235ZY>\311\367\366\275P<\310\275\231\235-\274hL\001>\201\2528=\021\034\315\275\371\032\307<q\234\310\275\220Y\032=9X\027\276\343:I\276\265\020(\274\315\252\"\276\247%\251=>\207x=LC!=,[\037>\033w\252\275\031\362^\276W\277\001\276\231\3155\275\022\276\027\276\343\260\370=\027K\t>\200\206\306=\342_\260=#\025K=CnP\276\354\334\t\275\223\246{=+b0>\243\206v\275\221\'\024>\033\357\016<(\232\356=\235\373A>h\220\032>V\244\366\275\200\314\341\274=HR>*\375\253=\213\017\013=\377\325\357\274\351W\261\275\241\276O\274ZgJ>/+\002\276MMg>1wP\276\220\221\213\275\351\"2>\325\265#>&*;>\337=\372\275\243\373y\276\35617\276\214\322\216>\371HX>R\211\302<Q,@>\233|\031>\"W\347=\230\312!>^FV\275\373\272\027>\032\210O\276N\3375\276\036L\361\275\037\320a<\324\210T\276\231\214\322=\t\257\212;\257\251\271=\263\217\036\276\355\262\035>\014\270-\276K\207-\275\014!(>\270\336d\276 \253\306\275g\311\177>\217\307f\274\332\204\\\276\023\202L>H\211\007>\222\215\256=[j\242\274\227\343M\275C\256\250\275\nN\023\276\367\306\256\275S\345\257\275\327\214>>\346|a>\263\030\026>\206\301j\274A\007;>\005%\330\275;%/>\005\217\034>\ty8\276>\276\307\274a\310\021>\344\031]>\313\334=>\253\312\356=\0076\">\330\314\n>;\230$\275b\246?>\202\237\305\275AI\377\275\242v\021\276\212Vr>\372\234\270=\230\263M\276\317\311\253\275~d\270\275I\016\321=\2338\024>\337\232\307\271\006f\025\276\021\233{\276o\307\260\275\267\357*\275\223\317\021>h-c\276X\023q=\006\303\n\276#\244R>^\302\221<\371hD>CQ\353=X\227\237\275\265Iz>{\0028\276(\214r>\235|\316<\225\257I>V\362Z>\265\217\212\276\226a\275\275\272D\035\276\272\230\036\276\326r\346=[\032\016\276\304B\267=\375\'%\276\021\211z>|\240\200\276\013\263E>.\271\315=\213\325\003>\351AL>9\275\017\276w<5\276+\021Q\2763\305Q>\356\373\374\275\203\253T>\234PN\275\000#\363=S\2155>:@*\276|\014\035\276fak>\377\2415>\377\316\016\276F\220\355=u6\357=\352Y\013\276\234\340\321=g\340\023>\013\377o>\201+U\275!\217\216<o()>\266^,\276\200\330Q\276\272*8\275\350\366;>^\263?\276Jo\357=\255\344\265\275\375\321\241\275;*F>g\370\013\276\264K3\276\222T\021\276\177\2308\275\343g*\276\224\210\216>\247\363y>\014\213u=io\\=\215/\t\276X\006\276\273\222)\267=\202\264\226\2758\261D>\214\350\303=\243*\252<\210?\240\275\303\244\303\275>\000\347=\210\322\251=v\027&>\t_\354\275\244\253\376\275\\\342\017>n^\">\222\230\017\276<\260R>\365-\265=M\177\215=\214\272\374=\2231.\276\235\323\033=\204\n\305\273\314\037\035>\233\352\027>\312\"\034>\351\356=\275br\030>E\237\005>.4|\274t\360\247\275gM\257\275M\220\317=\321:q<\323U1>\006\330>>\300I\371\274\016m1>\260iT\276i\026\367=o\232\006\274\307\205&\276\217$\270\275\305_\"\276\312\350\370=\016\321\244=(J$\276\310}\341=\373\222*>\021\235\341=\212n\n>\305\275\330=\354\000\300\275\344\033D=\346n\351=v\373\343\275\276\353*\275\037{y>8\271\252\274$\355\323\275\247\r\307=\024;_=\314+)\276\t\377\r\275\215!\316<\026\347\215\275>\033\337;\002\220\357\274\000:\356\275\016v\033\275\010%\'\276\304b\331\274q\335\340\274\235\004\001>\206\323\230=\241@H\2763Y\355;\207\354\275\274\023Q9>\363m\253\2738\232\274\275J\260\332=\334J\362\275\321\220\315=\346\246\001=\253\021\217;YV9>\217\206Z>\315v\377\275=\241\342\275\376D7\276e7\361=3\035\026>\3432\243\275\3628\215=\352B2\276\251\267\033>,Y\007>?77\276\033\013W=\210\346\374<@h\215\272\345x\004\274\226@\214>\232sx>\313\202\331\275rE\236\275\200\225\305\275\3747N=GI\216\275]%\000>\240\311\242\275\331\037\342=e\247\000\276%\\\226=\310\345\027\276\304\014\007\276\021\332\024>\270\354$\276[t\006>\\\231\034>G\371\246\274\270\235\215\274hU\002\276\024\270{\276\377\224\305\275\232\226a:n\030*\276\234c\032=\007\353?>\351?s;\301L\331=wn\025>S3\n=$\271\017\275\032\201\330\274\334$\\\275\330%\203=g\262\333=\230\252;\275\000\307\033>\273\3646\274\004\247e=n}w=\300\311!\273+6z\275\347\355j>\016\220\004:f&\243<\241\255\006<\333\222\244=\374\235\\>^\267&\276|\027\227<\37392>\373\223\003\275\014^\364\275\314\307\272\274\302Z\323\273~gC\276\205\\\326=\341\373\t>\024v\272\275\267\361\347=\204\'V=5\277>\276\256\005\214\2752\256z\275D\367\267=\376n/\276\265\'$>\013\2224\275\366\307\270\275\362\'\257>\300.B;\275\0176>^\275\354=\243\037\251\275H\001s>\000\253\363=Fg\321\274\273\221\214\276\332X\001\276\307DI\276r W\276\336\372\216>\277L\273=V\316\254\275t\206\354=bD\252\275\257\r\271=\237\337\226>z\336\033>\000\010\212\270\017\326\031>\363\021\325;\261m\003>\n\303\215>J\261Q\276\023R;>\036\006\204\276Q\014\217=\374\3430\276$z\006>pnV\276\304YA>\361U\247\273.8\335=w\322\254\275\037\235\342\275Zy\360\275\245L\337=\2371\212;\260Yr=\'\265=>G\244[=~\305\241=\000\001\006=\242\344[<\'J\262\275\356<\001\276-\224\311\275\016\221P\275\230f\324=0\253Z>l\307\327=+\354E>-\260\310\275@\376\366;\014\352\251=\326\275\222>\214\212\316\275}\rh\276\347\371\300\275N\337[=\376\332\227= \037=\274\036\235H\276\270\r\226\275\360\037m\275\234 \263\275\000\204 \273\334\006(\276\000\034,\276\300\300\237\275\324\021A\276 \377\254<\341yY>\247B5>b_\317=\346\343\255\275\350\276\307\274\2217$>q\377P\276\320\216E\274b]\317=\000>}\274|K\271\275R\261\220=\n\265\007\276\327\"\013\276j\237\004\276\261\2558\276\013\346\'\276T3\021\276\000\34409\231\220\024>(\311\313\274\231\254U\276X\317\343\274\237\207C> \002\240;\034\003\030=\343\352\010>\304\223\037\275Wq3>\377\007@>\225\3051>%LW>Jn\221=\200\t\332<\237_P>\340\321:\276iMO>\320OL<\003M\357\275#[8>\217\254\002\276\360\374\366<\232\3555\276\217\220Y>\325\251:\276\371!\">\252\313\265\275\225\3733\276\250z\025\276\000.\006\273\233kM>\016HY\276s\014[\276+>&>0z\001\276\234\361\034\276,\321R=\253\325i=\377S\221;\274\215_>+\272O\276\334\3640=\3277\266<t\0021=&\211n\275\320V#\276\032 \332=\235\203\274\275\340\205\324;\000\221\177\274\016\360\002\276\022\235\316=\2261\006>\252D\347=\267LK>C\251\271=\213\3479=\03340\276\315\006,>\315LV>O\027,\2760B.\276q\311\372\275}jb=\036\242\250\2757\302S=\2203\037\274\353\335;>\333K\250\275\340\216S>:b\322=T\226\005>\333c4>4\201\277\275\321N\023>\322\207\314=\266\320\360\274\326\350\320=\016\211)=V>T\275hF\026\276\\\3440\276\307\321\344\274\305\003-\276AP\310<ad\210\275\2768\257=\333R3\276c@8\276\347\332Z\276\026\260\256=\374<f\275M\242R>\361\352\324<\340\356\016<z\236\025=\315\205\250=`!\351<B\331\326\275_\243.>\346w\242\275\26246\276N\251\260=\013mk>\343\003\343=T%\356=\331\332\177=\337\002\367<\223~\006\276\320\357\"\276\036>\235=5$\337=vG`>\022^0>\232`\322\275\031\232N=\251\":>\325\237\010<\240\n\030<6\201t>\234L\304\275\\\350\343\275\022\332N\276\010\263`\275\207X\031\276\245\373\313=\315\245\265\275\234C\020>N\333X\276\255E2\275\013g\203\276\236\244\372;\315\350\331\273\221\272\322\275I\302/>\004:s\274\250\332k\275%\256\256\275\003\030\224\275e\370\023\275Q\321\337\273>\3365\276r\207\341=m\353\335;P\250\006=\004\302\376\275\025Y\036>\026\317\003\275\222\333->A\303&\276x\362\321\275\034\2119\276\314\360\177\274Z\350\366\275\037@V\276\201\275\372\275\346\"\000>:\377\303\275l\257\334=%\004&>\n\240\022\275(%\251<\260\366o\276Ml)>\324\324M\275\014\245I>_\332G\276\370\347\240\275y^O\276\260\316j>\205z\215>G\177x\276\205m\001=\034\356\245\275\364b>=\240g\027\275\017g\206>N \324;\212*\243=\306\007\000\275\230t\024\276\'?A\275\300w\211;&p2\274\022$<=\242\363:\276\337aK\276\361\314\336=\204MS\276\237\274\r\276jo\000>\327\311X<~\350\220\275\364J\210\275\354\327N>\003\326\036<c\2759\275\255J\024\275\374\340j\276\230\361\356\275\244G\017\276O\263\322;\242N5\2753Z\276\275\177$p\273^^B\276`\342\220=\201=@\275A\373\277\275?|#>Z\033\256=7\245\036\276\212\376@>%\\7\274\361\301i\276\204IV=\302\352\274==\303+>u\365\'\275\350\341O\276\210\263\3567\364\027\262<YE(\276\350n8>6\377\214=\212&\266\275\315\250\027>\000\033\225\272\216\202\275=|\024t\275L\370\006\275jY\206=\034\342z=\200r\035\275\000Az\273\t@\315\275\331\267\326\275v\201U\276\261\3148>\021QL>\314\224$=\267AS\276\220\265]<\331LX>\002\037\345\275\322\376\345\275\032\257\272=p\346e\275\002F\227=\215t#>84R\276\261\235\032>n\234\217\275\021\013B>\310D\031\276\233\001\326\275\240\337\310\274\rd\036>\316j#\276\350|\217\274\313\210.>Y\027\017>\266?\245=\342\323\341=\340k\275\275O\211J>\272\036\352=\314\332_=\245\223R\276$x\004=\274\301.=\035\210!>\330k\272\274\237\227\334\275\000\311\327\275lZ|=\005q;>@t\371;\251\327>>&9\324=\212\246\362=&)\237=\000\254q;\227s\303\275\233cT>x\214\353\274\212\\\367=T\351i\275\242\316\340\275\030\332\310\275&\304\215=\273\304\013>\026\244\014\276@!\014;\000\202\276\274v\256\001\276F\317\267=\216\227\202=`\030\221\274\n\336\224\275\270\2761\276 \336\003\274vo\004\276\211\314[>py6\274\270b\002\276P\300\031\275r]\267=\367\254\005>?M\375\275\222*\255\275\236\024\273=\226)\252=(\336\300<\305\032]\276\277mA>p\350l\274&\246\237\275a\252B>b\241\205=\214\371c=_\330\021\276\300\210+\276\246z\264=\343\305\n>\270\371\361<\362\204B\276\335\332\332\2756\t\274=\266\203\r\276\271\235\353\275\022\232\215=\020\372\362\274\224Q3=\004\364\204\275\240\344\270\274\226\323\222\275\260\255\007\274`H\374\274\0325\311=z\353\340=\234\3630\276\342\302\211=-\305\010\276\350\214\354\275\341\003D>\367AQ>\337P\020>\205ON\276\366K\263=0B\036\275\024\035s=<\032,>D$\020\275\0048l>\254}\000\276\324\375\365<\"\3762>\271\250{\275\366\247$\275\n]\201>\203\333\261\275\327\363+\275[\222\356;\r%\032>\264\371\273=\352(S>r\031>>\013\327^\273w\376^>\204p\317\275kg\320=a\327\204=G\311\246=\\\266\020\276\013bq>,\027\211=F,\354\275\330\217\256=\243\256\361\275\216~)\276w\177.\276\253\202q>\t\254\206\275\3049Z\276\367e\025\276A[\367=|\0313>r\316\000=#P\177=\315\267\310\2758\202b\275\r\014D>\320\326\324\275\010l\'>\264\357m>E\317g>\000F\":\022w\205\275s/N\276\303\202\006\276H\221\303\275\355\2311\276\373=W>\361\034%>\233(\330\275\346\014`>\334\207\023=\006\006x>\270\317\257\275\324>\027\275\334\263\254\275\237\306\214=7\177(\276G\270\324\275\306\264\305=\026\2015=|\234\026\275\210\263\355<\214\210F=\352U\217=h|4\276\247\303\003>1,D\275m\361\356<F\346\266=2&\024\276\024\006P>2\200\307\275y\223\361\275%\371\332\272l]J\276o\332?>\205~\005>K\210\332\275\353\375\032\275V#\237\275\2718<\275\013\346\335\275\014M\212=\335\353\205=\310h_>OA1\275d\240\032\275u\363R>\024\2577>\315c\250\275\324\317\261\272\277\'\034\276\024\205\006>\351\346S\276H\206H\276gbS\276f\273D>\302\2021>2,\331\275\302W%\276\241\022;\275\353`\215\273\233\3327>mK&\276\210\335\273\274\324\233\314<\332\232$\276\344\247\031>C+\322\275.\374\360=2\030\235\275\242%\210\275\313\0338>~RC>sZ4>\323\275.\276@=\311\274 \200\266<1\377)\276\324\342\"\273O\004~=Q\253#\276\274a\245=\256\2043>\332f\t\276\270\2031>\006\277\213=I\033\354\275\035\225\003>\0050\370\275\353H\324\273\216\376x\275*\263#>K\234\372=4\312w=\004k\352={,\216>\205V\277\275\360\243[>*\'\031=\022\337\246\275\336\3255\276\007m\001>\0256\220\274\344\273\322=5\376\036>M.I>\315wH\275\205\216\200\276\034\212\206=1\021>\274-\274U\276\211\2445<\275\331\235=\001\337:>\257\026P\276\033-\366<p\262\322\275\023/C>\271\235\260=\353\032\224=a3\200>\215\302\216<aee=97\270=^\355\341\275\2718\307\275\307\327\204<z\'\351=\2722\221=\"\303\252\274\265\211\200\276\2319)>\3361E\276\255#\200\276C\367x\275K\322\214=\314jv\276G\215I\276.\237\030\275\364Ld=x\266\232<\002O\200\276\206\355\340\273u\222\321<\214\\\266\275\211\226\2059\005O\035\276\225\024R\276\301\233\005>`\361\360;\362\256\242=\362\034\313=\367\220W>Z3\004\276$e\033\275\200\2577\276\316\266\272=V\300?\276\334\341w=\000\274\251\273\346\230\272=\354\205\026=:C\347\275\005\010\343\275|\267\036=\353\212U\276\243+:\276C\220$>n\260\320\275\010\226\255\274\233\323B>6\341\207\275eJ0>\300\030v;\024c0\276\247\300\027>\300q\223;l&\377\275)\334\312\275\"\235\262=\275 ,>\000\373::\366\356\232=m\214<\276]_4\276)w\361\275\310\030\010\276\035\270\037>\375jA>\030\342\000\2764\213\000\276\234\345^=\301\237\344\275^P\n\276\244\004 \276\354B\350\275,/\251\275p\332\212\2747s\025\276/1 >@\037\000=#5\366\275\004.\034\275?\253]\276b5\\\276\316\234\372=?\327\317\275\"@\223=N\355\305\275 KD\275\316\257\235\275\274\216\364\275\301\025\350\275@\232\343;`E\354<\323\030,\276\242wQ<\254F\032>\242w\340=`\357\272\274L\272\247\275\272\253\360\275L\312J\276\337W\357=\270m\016\275\343\230->\006\027\330\275\024\273\013=K!I>\262F\030\276\262c\225=\2676\000\276J\371\325=]\342\022>\206\246\365=z\336\027\2767\227 >\023k\351\275!18>\014\217l\275\300\202\324\2742\305\217=\204l\n=7\355S>\320R7<7\2658>\265\377\010\275\322\255\327=>U\273\275\250l\220<\311\014\024\276\212\303\006\2761\310F\276tD\014=1\265?\276\206\202\203=ts@\276\251\373\'>X(\353;V?\306=\206\254\256\275\273\031\235\275\276\274\003>l\005Q>\025\203C<y%\276\275\210|\310=2\024\340\275E\215.>\257\3376>\027\321D>\302\327\346=0\372\000\275\3123H\276\301\343\345\275.{\365=\365\245\367\275&\026\204=A&\371\275\340\236)>D4`\275\310%\271\275\030\307\325\275v\305\236=\033\227\202\275\303q$>\260E\005\275\032E/>(\232\213\274\201\355\212\275n\254\230\275`;&<x\317\216\2747,\035>\367\335\022\276\262>\241\275\260\237\265\275\234\317:\276\251\211\261\274E\002L<\242V\352\2756\032R\276\202>\000\276\376--\276$\357\005\275\203\016J>\271\364\322\275{\364[\276x\010W\275?{\014>\335+\272<\226\276\347=\332\017$\276\226g\253\275I\273\375\274Nt\016=@1X\275\025\220\036>:\311c\274O\302?>\020\023\227;6\033\220=\243\337;>\034T(=?\354\357\275\177\255#>\306\200O>\010R)=\311\251\260\275e\220J>\264\330\321\275Z\274\330=\214\317-\276\240\325\346;4q)\275[\226\347==\2258>2\355<<>\271Q\276\214\2000\275\265\217\327\275\360\313\241\274\276\336\230=\244\217\227;\224\320\006\276FR\027\276\354\360E=\241\352I>%5P>\345\237L\276\327\361\000>D^l<\016\326\014\276\tm\037\276~\033\232=.*\032>\232\006\344=SE\037\276J\231\266\275\325\371 >\230\300G\276\032\3072\276|\323s\275\317x!>\244l\331\275\312\374\272=\240\274^<\232\346\356=\024\340\316\275\210e\234\274\313-\324\275\322\356>\276\213\302\331\275\323d?>t1c\275\273e=>\300\203\371\274}\023)>\213<\216\274\210\306\347\275j[H\2744](=n\002\017\276\224\222\031=\211\320Z>\301\035\234=9|\377=:\377\232=\363\226M>\363.\334=\013\302\002>\304\203\027\275\356T\222\274\200\334\213\273\361=/>I\2256\276YW\273\272N\257i=v@\264=\222\356\207: \304\004\276n\274\265\275\305\356\326=\201\335\273\275\014t\017\276\276R\"\276\202\017;>Tm >nS\312\275\356\337\200;kI\332<G\214\360\274 p\037>\330\241\027=OQ\033=|J\314;P\3530\276\254\227`>\177#\340=\262\276N>\3264\207=\357\352\233\274\360\232\343\275{\010\254\274\214\331\000\275\362\313$=\263\264(>89\033>\366I\1777\260\265\253\275J\347\035\275<\022y\275\326\351\013>\207|\343\273\264\372{\275\362\312\204>L\320\006\274o\215h\276\367\244.>\032\037u>\356\255\346\275\375\211]>\025\327c\275\262\235\203=\331?#\276\266\013O\275L\270W>X.\\\276\2011*>n7\353\275\341\342\245\275F\305\257=\323\254k=\2640(=\376\334V=X\340\003\276\213\n\317=\243@0>9\343s=dmH\276M\003S\276\367\016\"\276b&#\276J{M=\323\257d\276\3719\244\275\"D\350;Ff\312\275,\354o>\200\223\263\275\230\225\205\275\026\n\001\276\334\237g>T\332g>\313\\\2519E\223&>\335+\332\275N\227\274<\236\367J>7\r\001>B\2358=*\334\016>l\n-\276\272\274\231=&c\027\276\225>\310=\276\272\177>\221V\232\275\212\325\277\275\221\264^>\016\246\374\275\332\241\261=\371B6=\327<\346\275\313\357\031>$\265\241=l\233\327\275\226>=\276\230\212\005>\225\361X\276Y\365P<\273\223>\274\007\254\034\276?<A\274Q\225=>\216\356\234\275;S\255=.\274\211\275\005\222y>o)1=A9P>\350\013:\276Q\231y>\207.\352\275\034\303\177>\270|\263\274\204\335\354\275I(7>\013\317a>maV>\033\3122>\230\227\230\275\210\"\335\275\366_\374=\371\247\313\275z\324\004<%\321\035;i\200D>\302\235j>\224YT\276\257Q\270=tn\025\275\003\306\335\275k\332/>\267\001Z\276\345\033\034=\244\215m>\214\204\204=1\307\013>K=\345\275\340\206A>\211<\367\274^B.\276\216DQ>\225@\335\2754\206\004\2757\257\207\275f\223\273\274\200\233\226:\316\273Y\275\214\262\376=w\221\324\275d\264\036=\316^\207>f\005f\276\350\367?>\2002>>\236\215\034>\316\240\027<1\331\'\274\235\364\313=\322\301\007\276\027o\246\272\317h=<\037\000\233=\307\362\016=\375\322L>T^\227=\241\237.>\331\267\005\276\320\017/>\362L\357\275(\340\267\273\313\373\013>lc\\>\217\356\333\275f\330\341\275\3008+\276z\222+\274pxC\274\245\014J>\213N\034\276\3324D>\273\303\003\276\366|l=\"\022W\276\315e=\274\265\'X\276Jj\311\275\230\366\374=\342\371\001\276\216+N>\226\205$>\230\351\200\275\252\345\246\275\275\001I>*\363\231<!\225Q\276\342\342L\276avb\276T\254\023>\237\222\t\275\235;H\275\277\224-\276\204\215\006=gm\037>\037g\022\276\000@\224\276H\251\232>\2519\277\275\232N.\276\333\2778\276\251\347\013>\032\210\224>\312\245\233\275\226B\225=\316\211\203=Wd\000>\320\007\342\275\002\363p>\nh\004>s\212N>\257E\336\275r\246G\276&\236\235=\204\200\316\275\326\354\344=\272\013\270=\241g\031>\360\273\220>\214\367\017\275\345}\253\275<\254\202\275Sy\215\274\0250\241>\316\254\247=\005c;\275\315o\211>s\3362>\367\036\027\276\207\371@\276\030\034\004\276\016\226\257=\204\377\025\275\006\032\350<Wx\333\2759S\205>\221$}>\205\346\227\275\311`\022>\336\352a\276\210eP\276<\366J=M\343\307\275\360\315\r\275\327\263\225\275\362\271\321\275\200\024b\275\\j8\276\016\242\200=\214O\271>\200\356>\273\336\252~\273\345\002\021\276\236\254)>\233\345\003\276\332\210\213=\2336\267=\306\216+\276nf\302=\001R\004\276[\013\337\275Jh,>e\334\245\274\025\260,\276\233\307\257<>\330[\276\310uj>&&u\274N\362\030>b\321\241=s\241\377=\360\2738\276\37077>\331\367\017>\302\256\326<,\302\016>\252\214@>\352z;=\271\3314>\3045j=-\255K=ush>\233\211,;S\343\035\276\253yw>+\255\247\2750\302\304=\021\334\033>\365\372/>\327\032\320<$\214a=\201\375\300;hDX\276L\343\265\275\315\037\032>\025\216|>Q\340\342\275c\020%\276\224\313\371=\260x\177\275\006:\350<\310W\007\273\322]\224=1\275g\276D\303\005\276-\375E\276\002\rk>\317\026\260=\244.\014>\3321\352;XvJ\276\016\304\232=H\260u\275[\2047=\221J9\276\217k%\276\376Z\021<5\327\017\276\220\004*>\210\220\206> \020\262=\270\322j= \\D\2764\3517=\316s\220=\237\010#\274\266\216\032>\230\326\365=\304#b\276s\307\035>/\222K>k\265\037=\013?9\276\330\255\253\275\004\373\260\275z\214!\275\227I9<i\245C>I\352\006\276d\306H=\376\343a\276xU;\276M\347\030>@w\247=\246)\014>\316\360[\276\355t|<M\353\210\275\302\274l>\'l\200\276\363\317M>\035\232\036>MfB>\206}8>\270J\017\275\275\014T>\023:\013>\035M\213\275\\{ >\362Xb\275`\334\320\273\216\220\210=\0355P>N\227Z>8\332;>\367\032T>\"\030\324=\267\233\204\275\026\217\341=\000~\266\275@\342\262\274\211\007\033\275\312\2330>\016\250e\275\251p\034=Z;l>`i\254;R\027\007>`\315\'\276\360`\351<\256\276\224\276\243R\005>\2734\236>N9\204>\246\260H\276\310\331a\276\247K\207\275\320j\030>\2320\325\273\347\001v>\251zn>\314\256@\276\214\235\234\274\250\213:\276\027\257\232>\016,a>p\024{=b\354\001\276\234W\302\275\016\007F\275\352\377\207>K\261n>\231>\006\2748\207\260=\013\317\342=z\273@\276\216\3775>\230\220Q\276\243S\010>T4K>\025,a>\223qU\276\256X\221=(k\301\275L\303h=t\323K>\306\2371\276\227\212|>lX8>\237\005\003>\275_\371\275\224\344B>P\272J\276\034\006\036>\000<\242\273\td%>\237\355]=\264\317\262\274\216\224\205>\337\237*>\346\326!\276N\204\244=\213\236\000>\026\204)\274\3336]>\025\262}>a\262\244=\377\362\223\275\334\302\326=\255\017\030>M5Z>\332\304\212\275\020Q\217\274\204\004\223\275\205\005V>h\250\261\275\315\350\376\275\002\365\211=\0320\245\275\320\362\333\274x\\\343\274\356\314\364=\205\266\367\275\225\250\323\275\304\356\014=\000\007\241\272U\240B>\340\326\241<\26282\276U!\313\275\346\217\251\275D\247V=\010\311\005\275\247\340O>B*\302\275@/\331\274\331{\017>\206\256\316\275\024\313\n=B\227\352=`\353\272<\236\007\346\275\240\0263\276\203FL\276\370\270\210\274HX=\276\322Y\235=$\325$=\265b<>ei\010>8\242\365<:O\334=\264o\007\276\240\257\321<\343\320:>\232E\370=\220\234W<\223.\\\276%\0210\276Sy >\332\331\261\275\203iA>\374T3=\372\352\305\275q\2218>\023\233)>\350\351\374\274\354\"v=\342\027\241\275\213\005S>\330\214m\275\036\007\210=\032bT\276\324L\250\275\340ru<\301\3654\276\242\257\377\275\271\332<>m8\234=\034\225\212=\370\251\335=\376j\021>\230\322\203>\360Ih>\373\333\277<\256.m\275\302\005_\274\013\312:\276V\367g\275\364\252\302\275j_\344\274\363Q\031>R!\004\276I\226g\276\2642i<xM\027\275\035J\201>Y\253\212=\016\242 >\017KT\276\204\001\034=\232;\331\275b\330>>\030\010\203>\232\031=>\356<\036\276z\305\014>\3543\331\275\030\345*>n\343\020\276o\n\030\276N\211\360\2755\330[=\255U\247\275!\270\003>7gs\276\270\255N\275V\236\010\276\301\234.\276\301\377\346=$\370$>\302\354\316=\316a\307\275\200\346[\276\243?\033>\376\374*=\3172\205\276\354jb\276\315\251\367\275\276\010|\275%`C>\257\334\001>\320\342N=\273\256\014\276r\266d>\030\r\254=c\303\326\274\201\005\332=\340\207\013\274a\331%=G\245\007>\014\235\331\275X\276_=(\370\030>\337\013\303=\307\203\360\275\233\023\225>\236O\231\275\320N,=X\202_=bB\236\274[\t\037\276\225(\203>\256\260\350<PC\276\275\361\270,>\277\022\357\275b>@>(\004\027\276\020\376\354<\255\232\205>\372>H>x5\003>R\n\022\276\3328\220\275\3529\211\275\236C\007>\017}\365=\211!\034\275\352\r\322\273\225\377\243=\266\204\261=4A\346<4\333Z=\243H\305\274\227\242\362=\245\033\022>\222\030P\276iD\233\274\365\261%\276]$\010>\320\235\">\022\312\317=\256+0\275\205\032\001>\254\020\276=\016\323\270=\030O\302\274D\354\253=\014x\004\275\311\345[\276\275\353\272\274\"A$\276\233#\213>}\nZ\276\024\026Q\276#\177b\276\322P/\275\035J^>Gyl\276T\330:=\341\0363=\t\353\342\275\036\337\270>lO\032\275d\352\264\275\265\222\354\275\251Xc>\025\205\217\273t\274\264\274~\037\020\276\0305_\276\013\371\364\274%76\276~\177\001\276\255\0350>\277\316M=\233B\020\276nV\023\275\234A\035\276\026a\261=\266\237\270=\"r%>\340\3060\276\227\366*\276<<%\275v`j>5K\034>7o\221;\303\362u>3M\366=\311np\276l\236F>\023\2576>%3d\275\350\244\244\275\304g\032\275\232e\311\275\0147Y<\216\020\206\275Q\221\216\275|Q8=|\310Y=\rd[>\212\372\206>\363\201\254\275\240\335L\275[\333\247=\305\352\201\275+\273\200>\032\0215\276\377w\211>\274.K>\003W\330\275\254\226M>p~\365=\010\\\325\275$\317\031\276 \227\242<@\024\003\275\253\224\'>NH\'>\346\303\020>H\304\003<\024Ge\276*r\332\273\240l_<Q>\231\276\235\033\314\275\242\372(\276\330[r>\360L/>\001H\005=\370_1\274\275\354\273=\226tO>l\260/\275\264=|=c8q>\374\324[\276\322\003\">\223\010\036>mDD=Y>9>\362h<\275bq\020\276\320\203\010<\343\3053\276\312\346j>\022D\220\275\340\355\350<6\177\304\273\320\010\307\274\271\002:\276\246\266\000\276g\203i>[\244\256=\001\r!=@\231\004>\032\261H\276\324\265k<,F\007>c\2402>I\353\346\275\365\316B>\373\310>=\347\370?\276~\233\224\276\364fb\276\001\027I>\322\3519\276\353p\014>\221\3251\276\314t\244=\334\3558=\325:?>\362+\333\274\222\210\360\275p\232\205\276\n\005;\276\0215V\276T\321\003\276\314\271t\275H2\352\274(\346\272\275Q\316\254=E\0102\276\210l \275T @=Lz*>v=\205=\276\327I\276\307\2000>\327i\253\275\273\003u>\022\205/>$O%>\341\216\205<\242^\241\275\315\"\017\276\243\336\303\275\006\371f=g\262D>A\215\230\274\252}\'>\367)\016\276\276X\r\276\000\365\030\2763\317\312<\351\223\361=\266!\303\274)\200!>s\013\371\275SX\313\275\324\2226\276\246\360\311\275)m1\275E\r\320=\324h\212\273~)\342\274B\265\235<N]<\276B%\023\276R\221\305\273\232\027\204=\010\347\200\270\354c\030\276\306,\r\276:\033\002>\021\327\373\275\004\345B>\274>\013>K$\034\276]\266$>\314\335i=\265\323\267\274\\\305\324=/\254Q\275\377\030\n>\232#D>\213\025x=\231<\305\275i\336\233=cqD\276\3767\235=\202\261\256\274\005\374\355\275\313\264:>\374\001\262\275\037\371k\2751\331\036\276\rA\365\274\227\356\\=\033\273\330\275\265\220L>E\312\024>\000\231\330;\2036\017>B\222\364\275R\254\270\274sZ4<\373\277\215=}\031\022>\371q\226<\252\036\316=\230;\243\275E~(\276Qm\317=\215e9>\244\250\314=\251\317\341=\003C@>\272K\312=q\377H\276\354#F=\277\256%>\365\345R>Y\360\023>u\301\t>\232\355\317\275W\262[>[\r&\276\220Q\343<\330U\317<,+}\275q8\305\275\374a\322\275\002\202\337\274\237B\032\276@G>\276\260\013\027>\235#\356\275\256\374\302=\265t\016\276b\326\362\275R\242\350\275[\3422=\242\233\327\275v3\274=\252]\211=p\307\007\274\036\324\311\275\212\225\273=\320\014\016<\301\250\256=\237XO>\266\317\\\276[\000\276\275\364\346\333\275\337\004\014\276\220\317\201\275`\022\007\276hG\266<\2755\000=\365\363\r>\207GV>j\013V\276\337\253\032\276\365\020\325\275\266r\360\275\3745\037=\341\205\010>\345\022B>\242p\"=\200u\277\275;\303\213>B\300U\275\270\213\332=\032\342\255\275FRT\275\364\022\354=\304\363\201>w+\251\274fw->\r\212\023\276\205i\014\276\206;\366<\361\201\017\2750\326<\276\240r\212<\254\343\240=\277v]\276]\306\034\276\303\223.=6\326R>U\262S\276%P\"=\002\256\034\276\006\265f\275(\306\210=g\377\252\273\203U\">\371\341\372\275\271\315%\276\037_\211=\356\332d>\231\223Q\276\362\217\363\275\206\370\266=\212\366\351<\001\330\214=\024\216e>\0306\316\275\305?\242\275\177\235Q>\361\363S>`\362g\275\302-=\276\302]\223\274\351\231\275=\223\262\270\274\241\227G\275\306\270\241\275\247UD:\320J5\276A\rF>\034^%>\331@\211>\2437\320\273-\035\003>\305\")>*\323\016>P\214\000=\373\325\244\273I\222L>i\017\\\275\2250K>\355\260\226\275@\224A\276%w\245\275\023\351->Ch\276\275Z\341Z>-\341\005=\255\347X>ip\245\274\353\212\211=\363[\303\274\331\026\251=\032\034Y\276\006k%\276\216C\205=\362iD>|\366g=\257\264h>\274\013V=\217\234\005>#)\"\276\216Y\245\275\204\311@=\017\361\016\276\020\314-\276\211\330\223\2753G\243;\340\263\033\275\"\306\335\275\336\372_\276?\r\245<\347\332\025>\025$4\276\362l&\276\355>*\275\177f\003\276T\271\360\274R\277\'\276DGT=\304\307\302\275,\352l:\272&\035>\023_\263\275\340\262@\276\253\312b\274K\304`>\254\002/\276\376\251-\276\2447\014>\343}\024>J!p>\376ZF\276\235a >\"\263\333\274ux#\276\257t\005>\000[\331=\031/\304\275Z\234\005\275\374\022r\275H\037\332\275d\001\343\275\371i\034\276D\020%>\370\321\007>\010[e\276\206\265W\276\216\323\225>\251\301\010>PX\037\275\304@\373\275z3\\\275M\0142\276\324\213.>\032\251M>T5\311\275\030\271\203\274l\236\372\274\311\375\241\275\302<\312=\302\022\331=0-&\275v`\217\274\007\031\\\276\337Tb<\357v>>7\327\026\276\367c\203>\245\216==\'\032\303=DC5\275\254\305Y>\022\271\021\276\205\326\200<\205\t6>%\230\245\275\263\343y>\266-\030\276=X\320\275\325n\"\276x{\033\276\233\226\021\276\023\213\371=q8E>\375%/>\235fW>\000~I\276\211(\377\275\376s\033\276\304\002\202\274\276\271\3009\346S\024>\227*\027>\214*\225\275\350>\2169\262\352\237\275\240\004\356;\211\001\255\275\223!P\276\373O\">24\020\275_\021\315;fx,\276\227\017!>)\227@>B\216@\276\242\324\240=F\334\222=1\331A>\365\321\016>\354\210\230\275 D\004=\216\211\035\276 S\304\274*\330\306=X\302H\276:a\274=\276\252\226\275\\+\347\275\272\020\260=\023\2632>\373t\\>W\n3\276\370\337\n\275\314\264\354\275\200\"\234:&\213\230=\266Z\354=\004\372?=\346G\241\275\370V\351\275\340L\033\274*\356\257=l\206,=8\002\223\275Xp\211<\302\363\026\276Q\2477>@q\\<6n\310=\000W%\273\316\242\243=p\332\n\274\236z\037\276x\020Y\275\220\023{<\304,o=\020\035 \276\020\215/<\031h\030>\016\317\260=}@?\276\304\237`=\002V=\276tg\273\275\240\333\036\275\312\270\237=\200\337P\275}\253K>\215\006\300\275\005\300\037>\200\030}\273\310a\315\275\021>\331\275\246g\226=\037\233]>\367\373>\276\210BM\275\365S6>\034\315Z\275\203\201=\276[M\020\276\n\033\303=\253\225\r>\324ZU\276r\272,\276O\317K>\373+>>\323/\332\275j\354\313=\034:#=\220\247\004=\257\241\"\276\004m\013=[\303\026>6\250\216\275/9.>\360H/\275\n\357\350=\314\2518\276\260\261N<\332c\375=v\257\310=B26\276\310J\262\274\272Y\343=\345\253\026>\033,N>\230\n\334\275\000NR\274\316q\347\275$\204K\276\000W\022\276\234Y@\276F\322\032\276\3233\307\275\004\325b=\340\322\355<\252$\327=\357\017\003>\030\371\271<\002\267\340=\343H\030>\276\275W\2760\330\217\275\370\235\327<\013K<>\025^:\276@np;\241\316R>9\226I>\002\210\262=\364\302\034=\242\300G\276\300c\273<\217g+>,t\005\276\375\014+>\013\225$\276eR\034>\n\004\310\275\361\367;>\347%\364\274n\262\254= E);?\021b=\246\213.\276\342\324Z\274S\032\336\275.j\247\275\363mL=3a\215>\035\256\322\275G\200\205>\315\272\000\275\273\017\244<x|/\275A\362P>$\017]=#\243\213<\366\3014\276\0053.>\266\364\226=\257[\030=1\215\004>\362\271u\275\r`\245=\316\256R\276\334\225\004>/\251\377\273\3564\251\275\347p\264\273(`4\275z\265\324\275\300\001\t>p\007\235\275\021\270?\276\373\247f>1\000Q>\310\334\027>\252=\243\274j\367\375\275\003|\266\274\360\0144>\360 \204\275dh\'\276\020\023U=m\3116>W\356J\276)DZ\276\376\305\214\275\347\254\201\276\370\010\336=\002\274\264\275\003\365\024>\330\310\355\275\300\316\202=\026\275?\276\347n5\276\343\035\274;\013\014g\274\001N\233\275\234\023\337\275\331\216\207=t.\275=p\032\003\276\344\325\177\273\337}O\276\350\366\267\274\303ZC<h\311\215=\201\362W>\302Wj=\216W\265=-\004)>\361\255\331=\377-\346\275\312bm=\333\210\271\274\037a5=5\314\201>\360$(=\310\037P\275M1+>\017\233\332\274\362cB\276 8\t\276\336\273\013\276\232\312\022\276Z\351\'\276\325CF;<^7\276\275w\243\275\004\315\202=\037\2600>\245\212\340\274H\013\025=\305Y(=\237\273\327=\206s\275=\272\315\025\276\270\343\213>\306\226B<\250\275\004>\273\311\030\275\222O\364=o\3270>\3615^<.\267\363\274\003V\352\275\017\366\275\275u\365\201\275(\211S>|\017\n=\022\346&\276\026Z\001>\234p\001\276\365\200\357\275e\232c>DGN\276\310(B>\216+\274=\352\024T\275rc\241=\327IL>\344\237B\276\334O\250\274\222\222\270\274\000\3174\276f\211\006\276\370L\263\274\224\016\227\275\022\355\006\276!\216\000>\322G\344=\371\371\031>\376\351\271=\340[\267\274{\014C>\010G\253\275\255\263@>@~\254\273\\=w\275\026\320-\276\333Q\007>.\362\022\276\2436Y>\205l\321\275L\206\010\276\r\004;>f\3234\276K\2243>\212\036\360=\247Y\'>\243\007\">f\245\337\275\361\263G\276\257/ >\022N\236=\247\201\'>\177\\P>\315\033\010\276HF\235\275`\273b<+\227N>\201\357\022>\263k\t>r\033\037\276;\302\030>\331.3\276\210\202\346\274P-\023\274r5\260=\356\360\t\276J2\355=r\235\351=\234\3428=\003\275M>V\264\262\275#\231\006>\000\240\021<\340r\003\276\025X]\276\265\226N>:H\000\276\340\307\007<\275K;>\025\322@\276\244\023,\276\236\014\243=\220\356\302<\360\001\325\274\025B\201=\211\247\317\275D\251\301<7\213\031>&k\315=I\030\204>\017S\264<\027q\004>z\357\005\275\374\030g>F\275\266<1eU\276\261X\315=t\326\245\274]3)>j\2606>%w)>\257\250\026=\0254G\276wK\250=\020\314%\276\006\034\000>\324\336\024\276 \027\r\275\024\314P\275^\374\253\275\370\371W>\026\007\352\275]Sb>\235\"\213\275}\007U=\324\315\005\275\305\250)\273*U\371=\026\"-\275\257\316\023=\241\211\205\275\316\321\035\276\350\307\313\275\220\337|=\2200\316\275\371\344\232=@\2238\276o\253f>\325\347\300=\2761\312=0\301d\276\343H\233=~\334\025\276Z\366\252\275\377(\257\274\034\001\247\275\217i\023>%\035[\2751\321\343\273\331!!>\271\202\214\273\353\220\316\275\007\211\332\275\010\304s=\220\353C<]6U=\252AM=y\253\242<C\207\323\275\214\017?=\345\253!>Q\312\002>\3348\035=\233%d\276\375\206\227\275\335\021\205>\010X?>\354Wm<8\021\013\276\030\270z<g\215$;=\217\332=\205\375\301\275A\270m>\315dw\276D\021\311<\336\230\277=\275\226\350\275[\273<>\021y\205=\222<\332\275\267h~\275\307I\253=\030&*\275w#c\275\344\344\371\275\270>\024\275@<\255=V\336\252\275\245Y\001\276\306<\005\276\216\205\200;\232a\035>\007b\024>\303z\372=\216\264a>ER\005>?\221 \276\001\236\315=\362X\025\276iH\352=5\240\207<:\317\250=\242\030\320\275\017uz=?\234\201=\354\010\327=\261\341\031>\306\357\205=O\233Q>\200\344\344\275Y\227\217\275\275V\275<\\0E=\213\357T\275a\341\r>\207\210\000>\'a\212>\264u\031>;\347\335=J\0317>\224\251\031\276;\336\334=@\032i\273~\333X>d\364\242\275\364R\177=\334<#\276\\\362\232\275#Qm=\354k\020\275\263\023#\276\360\210\234<&\343G>A\275\326\275VWn\275]\0260\275\305\352y\275\234-\343=\353\324\035>P\303\030<\343\277\375;J\250\204><m\323\275\342\276\025\276\000\224%=\272\252\345=X\262\252=\374\013\236>\24731>M\342(\276\322\216\022>1\246\266\274`\".\276\355\320\304\275\227\305\031>\252\347\200>KT\210>\354)\251\275S\311O>`/R\276\021m=\276\274\276\204>\236IQ=\347\237}>\250\305g>\2571,>>\361(\276\260\222`>x\321\270<t!8>~a\013\276Z\364\001>se}>ZC\306\2754\360e>\n8\302;\366\237\014\276OQ\365\2750\034\231<\233\3255>E\335\277<Y;\221>\371\016V\275\333Y\371\274\007\003\321\275"
      }
    }
  }
}
node {
  name: "sequential/dense_2/MatMul/ReadVariableOp"
  op: "Identity"
  input: "sequential/dense_2/MatMul/ReadVariableOp/resource"
  attr {
    key: "T"
    value {
      type: DT_FLOAT
    }
  }
}
node {
  name: "sequential/dense_2/MatMul"
  op: "MatMul"
  input: "sequential/dense_1/Relu"
  input: "sequential/dense_2/MatMul/ReadVariableOp"
  attr {
    key: "T"
    value {
      type: DT_FLOAT
    }
  }
  attr {
    key: "transpose_a"
    value {
      b: false
    }
  }
  attr {
    key: "transpose_b"
    value {
      b: false
    }
  }
}
node {
  name: "sequential/dense_2/BiasAdd/ReadVariableOp/resource"
  op: "Const"
  attr {
    key: "dtype"
    value {
      type: DT_FLOAT
    }
  }
  attr {
    key: "value"
    value {
      tensor {
        dtype: DT_FLOAT
        tensor_shape {
          dim {
            size: 64
          }
        }
        tensor_content: "\0261p<\000\000\000\000\372\365\306=\000\000\000\000p!\310\273\221L\314<\373\014\370<\225<\357<j2\221=\377y =i\260\301<\244\334\333;\266\203U<\267[\330;\256\\c=\344F\005=\303\013G=Day;\000\000\000\000\375\3160=#\3052=_1@\274\000\000\000\000f\206\314;\177\215\230\274\242o\225<\\\360\005=\342\226\261\273$\371\037<\311h\021\273&\t\221;\205\007\r\274m=C\274\264\022\271<\031\215e=\001$j=\313\350%\274\264\225,=\331u\032<\226u <\\_ =\242\366w\274H\034\t=p\370,=\353\326\210=\000\000\000\000\327\241\320<\235\207\325\273\020\250X=\000\000\000\000\007\"\216;G\304\241<\3763j<rk>=\001\320\027=\000\000\000\000\220\340\223<\000\000\000\000IR\253\273\376`\364<\313=\030=\313n<\274\275\221\331<\026\3559\274"
      }
    }
  }
}
node {
  name: "sequential/dense_2/BiasAdd/ReadVariableOp"
  op: "Identity"
  input: "sequential/dense_2/BiasAdd/ReadVariableOp/resource"
  attr {
    key: "T"
    value {
      type: DT_FLOAT
    }
  }
}
node {
  name: "sequential/dense_2/BiasAdd"
  op: "BiasAdd"
  input: "sequential/dense_2/MatMul"
  input: "sequential/dense_2/BiasAdd/ReadVariableOp"
  attr {
    key: "T"
    value {
      type: DT_FLOAT
    }
  }
  attr {
    key: "data_format"
    value {
      s: "NHWC"
    }
  }
}
node {
  name: "sequential/dense_2/Relu"
  op: "Relu"
  input: "sequential/dense_2/BiasAdd"
  attr {
    key: "T"
    value {
      type: DT_FLOAT
    }
  }
}
node {
  name: "sequential/dense_3/MatMul/ReadVariableOp/resource"
  op: "Const"
  attr {
    key: "dtype"
    value {
      type: DT_FLOAT
    }
  }
  attr {
    key: "value"
    value {
      tensor {
        dtype: DT_FLOAT
        tensor_shape {
          dim {
